{"version":"1.0","truncation":null,"padding":null,"added_tokens":[{"id":0,"content":"[UNK]","single_word":false,"lstrip":false,"rstrip":false,"normalized":false,"special":true},{"id":1,"content":"[CLS]","single_word":false,"lstrip":false,"rstrip":false,"normalized":false,"special":true},{"id":2,"content":"[SEP]","single_word":false,"lstrip":false,"rstrip":false,"normalized":false,"special":true}],"normalizer":{"type":"Sequence","normalizers":[{"type":"Strip","strip_left":true,"strip_right":true},{"type":"StripAccents"},{"type":"Lowercase"},{"type":"NFC"}]},"pre_tokenizer":{"type":"WhitespaceSplit"},"post_processor":{"type":"TemplateProcessing","single":[{"SpecialToken":{"id":"[CLS]","type_id":0}},{"Sequence":{"id":"A","type_id":0}},{"SpecialToken":{"id":"[SEP]","type_id":0}}],"pair":[{"SpecialToken":{"id":"[CLS]","type_id":0}},{"Sequence":{"id":"A","type_id":0}},{"SpecialToken":{"id":"[SEP]","type_id":0}},{"Sequence":{"id":"B","type_id":1}},{"SpecialToken":{"id":"[SEP]","type_id":1}}],"special_tokens":{"[CLS]":{"id":"[CLS]","ids":[1],"tokens":["[CLS]"]},"[SEP]":{"id":"[SEP]","ids":[2],"tokens":["[SEP]"]}}},"decoder":{"type":"ByteFallback"},"model":{"type":"BPE","dropout":null,"unk_token":"[UNK]","continuing_subword_prefix":null,"end_of_word_suffix":null,"fuse_unk":false,"byte_fallback":false,"ignore_merges":false,"vocab":{"[UNK]":0,"[CLS]":1,"[SEP]":2,"\u0000":3,"\u0007":4,"\u0010":5,"\u001a":6,"!":7,"\"":8,"#":9,"$":10,"%":11,"&":12,"'":13,"(":14,")":15,"*":16,"+":17,",":18,"-":19,".":20,"/":21,"0":22,"1":23,"2":24,"3":25,"4":26,"5":27,"6":28,"7":29,"8":30,"9":31,":":32,";":33,"<":34,"=":35,">":36,"?":37,"@":38,"[":39,"\\":40,"]":41,"^":42,"_":43,"`":44,"a":45,"b":46,"c":47,"d":48,"e":49,"f":50,"g":51,"h":52,"i":53,"j":54,"k":55,"l":56,"m":57,"n":58,"o":59,"p":60,"q":61,"r":62,"s":63,"t":64,"u":65,"v":66,"w":67,"x":68,"y":69,"z":70,"{":71,"|":72,"}":73,"~":74,"":75,"¡":76,"£":77,"¥":78,"§":79,"©":80,"«":81,"¬":82,"®":83,"°":84,"±":85,"²":86,"³":87,"µ":88,"¶":89,"·":90,"¹":91,"»":92,"¼":93,"½":94,"¾":95,"×":96,"ß":97,"à":98,"á":99,"â":100,"ã":101,"ä":102,"å":103,"æ":104,"ç":105,"è":106,"é":107,"ê":108,"ë":109,"í":110,"ï":111,"ð":112,"ñ":113,"ò":114,"ó":115,"ô":116,"õ":117,"ö":118,"÷":119,"ø":120,"ü":121,"ÿ":122,"ć":123,"ĉ":124,"č":125,"đ":126,"ĝ":127,"ĥ":128,"ı":129,"ł":130,"ō":131,"ő":132,"ś":133,"ŝ":134,"ş":135,"š":136,"ţ":137,"ų":138,"ž":139,"ƒ":140,"ɒ":141,"ɪ":142,"ʊ":143,"ʸ":144,"˒":145,"ˣ":146,"̇":147,"α":148,"β":149,"γ":150,"δ":151,"ε":152,"ζ":153,"η":154,"θ":155,"κ":156,"λ":157,"μ":158,"ν":159,"ξ":160,"π":161,"ρ":162,"σ":163,"τ":164,"φ":165,"χ":166,"ψ":167,"ω":168,"а":169,"е":170,"о":171,"р":172,"с":173,"ب":174,"ح":175,"د":176,"ل":177,"م":178,"ه":179,"ᴵ":180,"ᴹ":181,"ᴼ":182,"ᵀ":183,"ᵃ":184,"ᵇ":185,"ᵈ":186,"ᵏ":187,"ᵐ":188,"ᵖ":189,"ᵝ":190,"ᵢ":191,"ᵣ":192,"ᵥ":193,"ᶜ":194,"ᶻ":195,"ḟ":196,"ṁ":197,"ṅ":198,"ẇ":199,"ẋ":200,"ẍ":201,"ẑ":202,"ạ":203,"ấ":204,"ẫ":205,"ặ":206,"ế":207,"ể":208,"ị":209,"ỗ":210,"ộ":211,"ở":212,"ứ":213,"​":214,"‌":215,"‍":216,"‎":217,"‑":218,"–":219,"—":220,"‖":221,"‘":222,"’":223,"“":224,"”":225,"†":226,"‡":227,"•":228,"…":229,"‰":230,"′":231,"″":232,"›":233,"⁠":234,"⁰":235,"⁴":236,"⁵":237,"⁶":238,"⁷":239,"⁸":240,"⁹":241,"⁺":242,"⁻":243,"⁽":244,"⁾":245,"ⁿ":246,"₀":247,"₁":248,"₂":249,"₃":250,"₄":251,"₅":252,"₆":253,"₇":254,"₈":255,"₉":256,"₊":257,"₋":258,"ₐ":259,"ₑ":260,"ₓ":261,"ₖ":262,"ₗ":263,"ₘ":264,"ₙ":265,"ₚ":266,"ₜ":267,"€":268,"ℂ":269,"ℏ":270,"ℓ":271,"ℕ":272,"ℚ":273,"ℝ":274,"™":275,"ℤ":276,"ℱ":277,"ℳ":278,"ℹ":279,"⅓":280,"←":281,"↑":282,"→":283,"↓":284,"↔":285,"↕":286,"↗":287,"↘":288,"↦":289,"↩":290,"↪":291,"↳":292,"↻":293,"⇄":294,"⇅":295,"⇌":296,"⇐":297,"⇒":298,"⇓":299,"⇔":300,"⇡":301,"⇣":302,"∀":303,"∂":304,"∃":305,"∅":306,"∆":307,"∇":308,"∈":309,"∉":310,"∑":311,"−":312,"√":313,"∝":314,"∞":315,"∥":316,"∧":317,"∨":318,"∩":319,"∪":320,"∫":321,"∼":322,"≈":323,"≠":324,"≡":325,"≤":326,"≥":327,"≪":328,"≫":329,"≲":330,"≳":331,"≶":332,"⊂":333,"⊃":334,"⊄":335,"⊆":336,"⊕":337,"⊗":338,"⊙":339,"⊞":340,"⊟":341,"⊢":342,"⊥":343,"⊨":344,"⊬":345,"⊭":346,"⊴":347,"⋆":348,"⌈":349,"⌉":350,"⌊":351,"⌋":352,"⌒":353,"⌓":354,"⌖":355,"⌘":356,"⌠":357,"⌡":358,"⌨":359,"⌭":360,"⎮":361,"⏎":362,"⏭":363,"⏰":364,"⏱":365,"⏳":366,"⏸":367,"①":368,"②":369,"③":370,"④":371,"ⓐ":372,"ⓔ":373,"ⓘ":374,"ⓛ":375,"ⓥ":376,"─":377,"━":378,"│":379,"┃":380,"┌":381,"┐":382,"└":383,"┘":384,"├":385,"┤":386,"┬":387,"┴":388,"┼":389,"╌":390,"═":391,"║":392,"╔":393,"╗":394,"╚":395,"╝":396,"╠":397,"╣":398,"╱":399,"╲":400,"▀":401,"▄":402,"█":403,"░":404,"■":405,"□":406,"▲":407,"△":408,"▶":409,"▸":410,"►":411,"▼":412,"◀":413,"◄":414,"◆":415,"◇":416,"◉":417,"○":418,"◎":419,"●":420,"◐":421,"◯":422,"◻":423,"☁":424,"★":425,"☆":426,"☉":427,"☐":428,"☑":429,"☒":430,"☸":431,"♪":432,"⚑":433,"⚖":434,"⚙":435,"⚠":436,"⚡":437,"⚪":438,"⛏":439,"⛔":440,"✂":441,"✅":442,"✍":443,"✏":444,"✓":445,"✔":446,"✕":447,"✗":448,"✘":449,"✨":450,"❌":451,"❓":452,"❯":453,"❶":454,"❷":455,"❸":456,"❹":457,"➡":458,"➤":459,"⟨":460,"⟩":461,"⟶":462,"⟹":463,"⟺":464,"⠙":465,"⤳":466,"⨯":467,"⬜":468,"⭐":469,"ⱼ":470,"、":471,"。":472,"《":473,"》":474,"「":475,"」":476,"『":477,"』":478,"【":479,"】":480,"い":481,"お":482,"か":483,"が":484,"く":485,"け":486,"こ":487,"さ":488,"し":489,"じ":490,"す":491,"た":492,"だ":493,"ち":494,"つ":495,"て":496,"で":497,"な":498,"に":499,"ね":500,"の":501,"は":502,"ま":503,"め":504,"も":505,"る":506,"れ":507,"を":508,"ん":509,"ア":510,"イ":511,"オ":512,"カ":513,"キ":514,"グ":515,"ジ":516,"ゼ":517,"タ":518,"ッ":519,"デ":520,"ト":521,"ナ":522,"バ":523,"ビ":524,"プ":525,"モ":526,"リ":527,"ル":528,"レ":529,"ロ":530,"ワ":531,"ン":532,"ー":533,"一":534,"丁":535,"七":536,"万":537,"三":538,"上":539,"下":540,"不":541,"与":542,"专":543,"且":544,"世":545,"丙":546,"业":547,"东":548,"丝":549,"丢":550,"两":551,"严":552,"並":553,"个":554,"中":555,"丰":556,"串":557,"临":558,"为":559,"主":560,"丽":561,"举":562,"乃":563,"久":564,"么":565,"义":566,"之":567,"乎":568,"乏":569,"乐":570,"乘":571,"乙":572,"九":573,"也":574,"习":575,"书":576,"买":577,"乱":578,"了":579,"予":580,"争":581,"事":582,"二":583,"于":584,"云":585,"互":586,"五":587,"井":588,"亚":589,"些":590,"亞":591,"亡":592,"交":593,"产":594,"享":595,"京":596,"亭":597,"亮":598,"亲":599,"人":600,"亿":601,"什":602,"仅":603,"仇":604,"今":605,"介":606,"仍":607,"从":608,"仑":609,"仓":610,"仔":611,"他":612,"付":613,"代":614,"令":615,"以":616,"仪":617,"们":618,"仲":619,"件":620,"价":621,"任":622,"份":623,"仿":624,"企":625,"伊":626,"伍":627,"伏":628,"休":629,"众":630,"优":631,"伙":632,"会":633,"传":634,"伤":635,"伦":636,"伪":637,"伯":638,"估":639,"伴":640,"伸":641,"似":642,"但":643,"位":644,"低":645,"住":646,"佐":647,"体":648,"佔":649,"何":650,"余":651,"作":652,"你":653,"佬":654,"佳":655,"使":656,"來":657,"例":658,"供":659,"依":660,"侦":661,"侧":662,"侵":663,"便":664,"係":665,"俄":666,"俗":667,"保":668,"信":669,"修":670,"個":671,"倍":672,"們":673,"倒":674,"候":675,"倚":676,"借":677,"倫":678,"值":679,"倾":680,"假":681,"偏":682,"做":683,"停":684,"健":685,"偶":686,"偷":687,"備":688,"储":689,"傾":690,"僅":691,"像":692,"僵":693,"儕":694,"儘":695,"儿":696,"允":697,"元":698,"兄":699,"充":700,"先":701,"光":702,"克":703,"免":704,"兑":705,"兜":706,"入":707,"內":708,"全":709,"兩":710,"八":711,"公":712,"六":713,"兰":714,"共":715,"关":716,"兴":717,"其":718,"具":719,"典":720,"兼":721,"内":722,"冊":723,"册":724,"再":725,"冒":726,"冗":727,"写":728,"军":729,"农":730,"冰":731,"冲":732,"决":733,"况":734,"冷":735,"冻":736,"净":737,"准":738,"凌":739,"减":740,"凑":741,"几":742,"凡":743,"凭":744,"凯":745,"出":746,"击":747,"函":748,"刀":749,"分":750,"切":751,"刊":752,"划":753,"列":754,"则":755,"刚":756,"创":757,"初":758,"删":759,"判":760,"別":761,"利":762,"别":763,"到":764,"制":765,"刷":766,"券":767,"刻":768,"剂":769,"則":770,"削":771,"前":772,"剥":773,"剧":774,"剩":775,"剪":776,"副":777,"割":778,"創":779,"劃":780,"劇":781,"力":782,"办":783,"功":784,"加":785,"务":786,"劣":787,"动":788,"助":789,"劫":790,"励":791,"劳":792,"势":793,"勒":794,"動":795,"務":796,"勢":797,"勾":798,"勿":799,"包":800,"化":801,"北":802,"匹":803,"区":804,"医":805,"匿":806,"區":807,"十":808,"千":809,"升":810,"半":811,"华":812,"协":813,"卓":814,"单":815,"卖":816,"南":817,"単":818,"博":819,"占":820,"卡":821,"卫":822,"印":823,"危":824,"即":825,"却":826,"卷":827,"卸":828,"厂":829,"厅":830,"历":831,"压":832,"厚":833,"原":834,"去":835,"参":836,"參":837,"又":838,"叉":839,"及":840,"友":841,"双":842,"反":843,"发":844,"取":845,"受":846,"变":847,"叙":848,"叛":849,"叠":850,"口":851,"古":852,"句":853,"另":854,"只":855,"叫":856,"召":857,"可":858,"台":859,"史":860,"右":861,"号":862,"司":863,"吃":864,"各":865,"合":866,"吊":867,"同":868,"名":869,"后":870,"向":871,"吗":872,"吞":873,"否":874,"吧":875,"含":876,"听":877,"启":878,"吸":879,"吻":880,"呈":881,"告":882,"员":883,"呢":884,"周":885,"味":886,"呼":887,"命":888,"和":889,"咨":890,"咬":891,"咱":892,"品":893,"哈":894,"响":895,"員":896,"哪":897,"哲":898,"哺":899,"唤":900,"唯":901,"啃":902,"商":903,"問":904,"喂":905,"善":906,"喜":907,"單":908,"喷":909,"嗅":910,"嗨":911,"嘉":912,"嘗":913,"嘯":914,"器":915,"噪":916,"噬":917,"嚴":918,"四":919,"回":920,"因":921,"团":922,"困":923,"围":924,"固":925,"国":926,"图":927,"圆":928,"圈":929,"國":930,"圍":931,"圖":932,"團":933,"在":934,"地":935,"场":936,"圾":937,"址":938,"均":939,"坍":940,"坏":941,"坐":942,"坑":943,"块":944,"坚":945,"坛":946,"坡":947,"坦":948,"坨":949,"垂":950,"垃":951,"型":952,"垒":953,"埋":954,"城":955,"域":956,"執":957,"培":958,"基":959,"堆":960,"堡":961,"報":962,"場":963,"堵":964,"塌":965,"塔":966,"塞":967,"填":968,"境":969,"墙":970,"增":971,"壇":972,"壓":973,"士":974,"壬":975,"声":976,"壳":977,"壹":978,"处":979,"备":980,"复":981,"外":982,"多":983,"够":984,"夠":985,"大":986,"天":987,"太":988,"夫":989,"央":990,"失":991,"头":992,"夸":993,"夹":994,"奇":995,"奏":996,"契":997,"奔":998,"奖":999,"套":1000,"奶":1001,"好":1002,"如":1003,"始":1004,"姓":1005,"委":1006,"姿":1007,"威":1008,"娃":1009,"娜":1010,"婉":1011,"媒":1012,"嫌":1013,"子":1014,"字":1015,"存":1016,"季":1017,"孤":1018,"学":1019,"學":1020,"宁":1021,"它":1022,"宇":1023,"守":1024,"安":1025,"完":1026,"宏":1027,"宕":1028,"宗":1029,"官":1030,"宙":1031,"定":1032,"宜":1033,"宝":1034,"实":1035,"审":1036,"客":1037,"宣":1038,"室":1039,"宫":1040,"害":1041,"家":1042,"容":1043,"宽":1044,"宿":1045,"寄":1046,"密":1047,"富":1048,"察":1049,"實":1050,"審":1051,"寫":1052,"寸":1053,"对":1054,"寻":1055,"导":1056,"対":1057,"封":1058,"射":1059,"将":1060,"將":1061,"專":1062,"尊":1063,"尋":1064,"對":1065,"導":1066,"小":1067,"少":1068,"尔":1069,"尚":1070,"尝":1071,"尤":1072,"就":1073,"尸":1074,"尺":1075,"尽":1076,"尾":1077,"局":1078,"层":1079,"居":1080,"屏":1081,"展":1082,"属":1083,"層":1084,"屬":1085,"岔":1086,"峰":1087,"峻":1088,"崖":1089,"崩":1090,"嵌":1091,"川":1092,"州":1093,"巡":1094,"工":1095,"左":1096,"巧":1097,"巨":1098,"差":1099,"己":1100,"已":1101,"巴":1102,"币":1103,"市":1104,"布":1105,"帆":1106,"师":1107,"希":1108,"帕":1109,"帖":1110,"帝":1111,"带":1112,"帧":1113,"師":1114,"席":1115,"帮":1116,"帶":1117,"常":1118,"幂":1119,"幅":1120,"幕":1121,"幫":1122,"干":1123,"平":1124,"年":1125,"并":1126,"幸":1127,"幻":1128,"广":1129,"床":1130,"序":1131,"库":1132,"应":1133,"底":1134,"店":1135,"庚":1136,"府":1137,"废":1138,"度":1139,"座":1140,"庫":1141,"庭":1142,"康":1143,"廣":1144,"延":1145,"建":1146,"开":1147,"异":1148,"弃":1149,"弄":1150,"式":1151,"引":1152,"弟":1153,"张":1154,"弯":1155,"弱":1156,"張":1157,"強":1158,"弹":1159,"强":1160,"归":1161,"当":1162,"录":1163,"形":1164,"彩":1165,"影":1166,"役":1167,"往":1168,"征":1169,"径":1170,"待":1171,"很":1172,"律":1173,"後":1174,"得":1175,"從":1176,"御":1177,"復":1178,"循":1179,"微":1180,"徴":1181,"徵":1182,"德":1183,"心":1184,"必":1185,"忆":1186,"忍":1187,"志":1188,"忘":1189,"忙":1190,"応":1191,"快":1192,"念":1193,"忽":1194,"怀":1195,"态":1196,"怎":1197,"怕":1198,"思":1199,"急":1200,"性":1201,"怪":1202,"总":1203,"恐":1204,"恒":1205,"恢":1206,"恤":1207,"恨":1208,"息":1209,"恰":1210,"恶":1211,"悉":1212,"悦":1213,"您":1214,"悬":1215,"情":1216,"惕":1217,"惠":1218,"惯":1219,"惰":1220,"想":1221,"意":1222,"愛":1223,"感":1224,"愿":1225,"態":1226,"慎":1227,"慢":1228,"慧":1229,"懂":1230,"應":1231,"懒":1232,"戊":1233,"戏":1234,"成":1235,"我":1236,"或":1237,"战":1238,"截":1239,"戰":1240,"戳":1241,"户":1242,"房":1243,"所":1244,"手":1245,"才":1246,"扎":1247,"扑":1248,"打":1249,"托":1250,"扣":1251,"执":1252,"扩":1253,"扫":1254,"扭":1255,"扮":1256,"扰":1257,"批":1258,"找":1259,"承":1260,"技":1261,"抄":1262,"把":1263,"抑":1264,"抓":1265,"投":1266,"抖":1267,"抗":1268,"折":1269,"抛":1270,"択":1271,"抢":1272,"护":1273,"报":1274,"披":1275,"抱":1276,"抵":1277,"抹":1278,"押":1279,"抽":1280,"担":1281,"拆":1282,"拉":1283,"拍":1284,"拐":1285,"拒":1286,"拓":1287,"拔":1288,"拖":1289,"招":1290,"拟":1291,"拥":1292,"拦":1293,"择":1294,"括":1295,"拳":1296,"拷":1297,"拼":1298,"拽":1299,"拾":1300,"拿":1301,"持":1302,"挂":1303,"指":1304,"按":1305,"挑":1306,"挖":1307,"挡":1308,"挤":1309,"挥":1310,"捆":1311,"捉":1312,"捕":1313,"损":1314,"捡":1315,"换":1316,"据":1317,"捷":1318,"掃":1319,"授":1320,"掉":1321,"掌":1322,"排":1323,"掘":1324,"採":1325,"探":1326,"接":1327,"控":1328,"推":1329,"掩":1330,"措":1331,"描":1332,"提":1333,"插":1334,"換":1335,"握":1336,"揭":1337,"搜":1338,"搞":1339,"搬":1340,"搭":1341,"携":1342,"摄":1343,"摇":1344,"摘":1345,"摧":1346,"摩":1347,"摸":1348,"撑":1349,"撒":1350,"撞":1351,"撤":1352,"播":1353,"撰":1354,"擇":1355,"擊":1356,"擋":1357,"操":1358,"擎":1359,"據":1360,"擦":1361,"擬":1362,"擴":1363,"擾":1364,"支":1365,"收":1366,"改":1367,"攻":1368,"放":1369,"政":1370,"故":1371,"效":1372,"敏":1373,"救":1374,"敗":1375,"教":1376,"敛":1377,"散":1378,"敬":1379,"数":1380,"整":1381,"數":1382,"文":1383,"料":1384,"斜":1385,"斥":1386,"斧":1387,"断":1388,"斯":1389,"新":1390,"斷":1391,"方":1392,"於":1393,"施":1394,"旁":1395,"旋":1396,"族":1397,"旗":1398,"无":1399,"既":1400,"日":1401,"旦":1402,"旧":1403,"旨":1404,"早":1405,"时":1406,"昂":1407,"昆":1408,"明":1409,"易":1410,"星":1411,"映":1412,"春":1413,"是":1414,"昵":1415,"显":1416,"時":1417,"晚":1418,"普":1419,"景":1420,"晰":1421,"智":1422,"暂":1423,"暗":1424,"暴":1425,"曲":1426,"更":1427,"書":1428,"曼":1429,"曾":1430,"替":1431,"最":1432,"會":1433,"月":1434,"有":1435,"朋":1436,"服":1437,"朗":1438,"望":1439,"朝":1440,"期":1441,"木":1442,"未":1443,"末":1444,"本":1445,"术":1446,"机":1447,"杀":1448,"杂":1449,"权":1450,"杆":1451,"材":1452,"杜":1453,"束":1454,"杠":1455,"条":1456,"来":1457,"杰":1458,"東":1459,"松":1460,"板":1461,"极":1462,"构":1463,"析":1464,"林":1465,"枚":1466,"果":1467,"枪":1468,"架":1469,"柄":1470,"某":1471,"染":1472,"查":1473,"柴":1474,"査":1475,"栅":1476,"标":1477,"栈":1478,"栏":1479,"树":1480,"校":1481,"样":1482,"核":1483,"根":1484,"格":1485,"框":1486,"案":1487,"桌":1488,"档":1489,"桥":1490,"桩":1491,"桶":1492,"梆":1493,"條":1494,"梦":1495,"梭":1496,"梯":1497,"械":1498,"梳":1499,"检":1500,"棒":1501,"棘":1502,"森":1503,"植":1504,"椭":1505,"楚":1506,"業":1507,"極":1508,"概":1509,"榜":1510,"榨":1511,"構":1512,"槛":1513,"槽":1514,"標":1515,"模":1516,"樣":1517,"横":1518,"機":1519,"檔":1520,"檢":1521,"次":1522,"欢":1523,"欺":1524,"款":1525,"歉":1526,"歐":1527,"止":1528,"正":1529,"此":1530,"步":1531,"武":1532,"歧":1533,"歸":1534,"死":1535,"殊":1536,"残":1537,"段":1538,"毁":1539,"母":1540,"每":1541,"毒":1542,"比":1543,"毕":1544,"毛":1545,"毫":1546,"民":1547,"氓":1548,"气":1549,"気":1550,"氧":1551,"氰":1552,"水":1553,"永":1554,"求":1555,"汇":1556,"汉":1557,"江":1558,"池":1559,"污":1560,"決":1561,"汽":1562,"沉":1563,"沙":1564,"沟":1565,"没":1566,"沦":1567,"油":1568,"治":1569,"沿":1570,"況":1571,"泄":1572,"法":1573,"泛":1574,"泡":1575,"波":1576,"注":1577,"洁":1578,"洋":1579,"洒":1580,"洗":1581,"洞":1582,"洪":1583,"洲":1584,"活":1585,"洽":1586,"派":1587,"流":1588,"浅":1589,"测":1590,"济":1591,"浏":1592,"浙":1593,"浪":1594,"浮":1595,"海":1596,"消":1597,"涉":1598,"润":1599,"涨":1600,"涵":1601,"淀":1602,"淆":1603,"淘":1604,"深":1605,"混":1606,"淹":1607,"添":1608,"清":1609,"渐":1610,"渗":1611,"減":1612,"渠":1613,"温":1614,"測":1615,"渲":1616,"游":1617,"溃":1618,"源":1619,"準":1620,"溢":1621,"溯":1622,"滑":1623,"滚":1624,"滞":1625,"满":1626,"滤":1627,"滥":1628,"滿":1629,"漂":1630,"漏":1631,"演":1632,"漫":1633,"潛":1634,"潜":1635,"激":1636,"濟":1637,"灌":1638,"灣":1639,"火":1640,"灭":1641,"灯":1642,"灰":1643,"灵":1644,"灾":1645,"炭":1646,"炸":1647,"点":1648,"為":1649,"炼":1650,"烂":1651,"烈":1652,"烟":1653,"烤":1654,"热":1655,"烽":1656,"焊":1657,"無":1658,"焦":1659,"焰":1660,"然":1661,"照":1662,"煽":1663,"熔":1664,"熟":1665,"熵":1666,"燃":1667,"爆":1668,"爬":1669,"爭":1670,"爱":1671,"父":1672,"片":1673,"版":1674,"牌":1675,"牙":1676,"牛":1677,"物":1678,"特":1679,"犯":1680,"状":1681,"犹":1682,"狀":1683,"狂":1684,"狐":1685,"狗":1686,"狠":1687,"狩":1688,"独":1689,"狱":1690,"猎":1691,"猜":1692,"猫":1693,"献":1694,"獨":1695,"獲":1696,"獻":1697,"率":1698,"王":1699,"玩":1700,"环":1701,"现":1702,"珠":1703,"班":1704,"現":1705,"球":1706,"理":1707,"瑞":1708,"環":1709,"瓶":1710,"甚":1711,"生":1712,"產":1713,"用":1714,"由":1715,"甲":1716,"申":1717,"电":1718,"画":1719,"界":1720,"留":1721,"畢":1722,"略":1723,"畫":1724,"異":1725,"畴":1726,"當":1727,"畸":1728,"疏":1729,"疑":1730,"疫":1731,"疲":1732,"病":1733,"症":1734,"痕":1735,"痪":1736,"瘦":1737,"瘫":1738,"療":1739,"癌":1740,"癸":1741,"登":1742,"發":1743,"白":1744,"百":1745,"的":1746,"皮":1747,"益":1748,"盐":1749,"监":1750,"盒":1751,"盖":1752,"盗":1753,"盘":1754,"監":1755,"目":1756,"盯":1757,"盲":1758,"直":1759,"相":1760,"盾":1761,"省":1762,"看":1763,"真":1764,"眠":1765,"眨":1766,"眼":1767,"着":1768,"睡":1769,"督":1770,"矛":1771,"矢":1772,"知":1773,"矩":1774,"短":1775,"石":1776,"矿":1777,"码":1778,"砍":1779,"研":1780,"砖":1781,"破":1782,"础":1783,"硝":1784,"硫":1785,"硬":1786,"确":1787,"碍":1788,"碎":1789,"碰":1790,"確":1791,"碼":1792,"磁":1793,"磕":1794,"磨":1795,"磺":1796,"礎":1797,"礙":1798,"示":1799,"礼":1800,"社":1801,"祖":1802,"神":1803,"票":1804,"禁":1805,"福":1806,"离":1807,"秀":1808,"私":1809,"种":1810,"科":1811,"秒":1812,"秘":1813,"租":1814,"积":1815,"称":1816,"移":1817,"稀":1818,"程":1819,"稍":1820,"種":1821,"稱":1822,"稳":1823,"稻":1824,"稿":1825,"積":1826,"穩":1827,"究":1828,"穷":1829,"空":1830,"穿":1831,"突":1832,"窃":1833,"窄":1834,"窗":1835,"立":1836,"站":1837,"竞":1838,"章":1839,"端":1840,"競":1841,"笔":1842,"笛":1843,"符":1844,"笨":1845,"第":1846,"笼":1847,"等":1848,"答":1849,"策":1850,"筛":1851,"签":1852,"简":1853,"算":1854,"管":1855,"箭":1856,"箱":1857,"節":1858,"範":1859,"篇":1860,"篡":1861,"簇":1862,"簡":1863,"簽":1864,"簿":1865,"籍":1866,"米":1867,"类":1868,"粒":1869,"粗":1870,"粘":1871,"粤":1872,"精":1873,"糊":1874,"系":1875,"約":1876,"納":1877,"級":1878,"素":1879,"索":1880,"紧":1881,"累":1882,"細":1883,"紹":1884,"終":1885,"組":1886,"結":1887,"絡":1888,"統":1889,"綁":1890,"經":1891,"綜":1892,"維":1893,"綱":1894,"網":1895,"緒":1896,"線":1897,"編":1898,"緩":1899,"緻":1900,"縮":1901,"縱":1902,"總":1903,"績":1904,"繁":1905,"織":1906,"繪":1907,"續":1908,"红":1909,"约":1910,"级":1911,"纪":1912,"纯":1913,"纲":1914,"纳":1915,"纵":1916,"纸":1917,"纹":1918,"线":1919,"练":1920,"组":1921,"细":1922,"织":1923,"终":1924,"绍":1925,"经":1926,"绑":1927,"绒":1928,"结":1929,"绕":1930,"绘":1931,"给":1932,"络":1933,"绝":1934,"统":1935,"继":1936,"绩":1937,"绪":1938,"续":1939,"维":1940,"综":1941,"绿":1942,"缀":1943,"缓":1944,"编":1945,"缘":1946,"缜":1947,"缩":1948,"缺":1949,"罐":1950,"网":1951,"罕":1952,"罗":1953,"罚":1954,"罪":1955,"置":1956,"署":1957,"羊":1958,"美":1959,"羟":1960,"群":1961,"義":1962,"習":1963,"翰":1964,"翻":1965,"老":1966,"考":1967,"者":1968,"而":1969,"耕":1970,"耗":1971,"耦":1972,"聊":1973,"职":1974,"联":1975,"聘":1976,"聚":1977,"聪":1978,"聲":1979,"職":1980,"肆":1981,"肉":1982,"股":1983,"肤":1984,"肥":1985,"肯":1986,"育":1987,"胀":1988,"胁":1989,"胆":1990,"背":1991,"胡":1992,"胶":1993,"能":1994,"脆":1995,"脈":1996,"脉":1997,"脏":1998,"脑":1999,"脚":2000,"脱":2001,"脸":2002,"腐":2003,"腺":2004,"腾":2005,"膨":2006,"臆":2007,"臨":2008,"自":2009,"至":2010,"致":2011,"舆":2012,"與":2013,"興":2014,"舍":2015,"舟":2016,"航":2017,"般":2018,"舰":2019,"艦":2020,"良":2021,"色":2022,"艺":2023,"节":2024,"芯":2025,"花":2026,"苏":2027,"苗":2028,"若":2029,"英":2030,"苹":2031,"范":2032,"草":2033,"荐":2034,"荒":2035,"药":2036,"荷":2037,"获":2038,"菜":2039,"萄":2040,"萎":2041,"萤":2042,"营":2043,"萬":2044,"落":2045,"著":2046,"葡":2047,"董":2048,"蒸":2049,"蓄":2050,"蓋":2051,"蓝":2052,"蔽":2053,"蕉":2054,"薄":2055,"薅":2056,"藏":2057,"蘇":2058,"虑":2059,"處":2060,"虚":2061,"虛":2062,"號":2063,"虫":2064,"虹":2065,"虽":2066,"蚁":2067,"蚂":2068,"蜜":2069,"蝶":2070,"融":2071,"蠕":2072,"行":2073,"衍":2074,"術":2075,"衔":2076,"街":2077,"衝":2078,"衡":2079,"补":2080,"表":2081,"衰":2082,"袋":2083,"袖":2084,"被":2085,"裁":2086,"裂":2087,"装":2088,"補":2089,"裤":2090,"裸":2091,"裹":2092,"褒":2093,"西":2094,"要":2095,"覆":2096,"見":2097,"規":2098,"視":2099,"親":2100,"覺":2101,"觀":2102,"见":2103,"观":2104,"规":2105,"视":2106,"览":2107,"觉":2108,"角":2109,"解":2110,"触":2111,"言":2112,"訂":2113,"計":2114,"訊":2115,"討":2116,"訪":2117,"設":2118,"註":2119,"評":2120,"詞":2121,"試":2122,"詮":2123,"話":2124,"誉":2125,"認":2126,"語":2127,"誤":2128,"說":2129,"説":2130,"課":2131,"調":2132,"談":2133,"請":2134,"論":2135,"諾":2136,"謀":2137,"證":2138,"警":2139,"議":2140,"護":2141,"譽":2142,"變":2143,"讓":2144,"计":2145,"订":2146,"认":2147,"讨":2148,"让":2149,"训":2150,"议":2151,"讯":2152,"记":2153,"讲":2154,"许":2155,"论":2156,"设":2157,"访":2158,"诀":2159,"证":2160,"评":2161,"识":2162,"诈":2163,"诉":2164,"诊":2165,"词":2166,"译":2167,"试":2168,"诗":2169,"诚":2170,"话":2171,"询":2172,"该":2173,"详":2174,"语":2175,"误":2176,"诱":2177,"说":2178,"诵":2179,"请":2180,"诸":2181,"诺":2182,"读":2183,"课":2184,"谁":2185,"调":2186,"谈":2187,"谓":2188,"谨":2189,"谬":2190,"谱":2191,"豁":2192,"豐":2193,"象":2194,"豫":2195,"貌":2196,"財":2197,"貫":2198,"責":2199,"貳":2200,"貴":2201,"費":2202,"資":2203,"質":2204,"賴":2205,"贝":2206,"负":2207,"贡":2208,"财":2209,"责":2210,"败":2211,"账":2212,"货":2213,"质":2214,"购":2215,"贴":2216,"贵":2217,"贷":2218,"费":2219,"资":2220,"赋":2221,"赏":2222,"赔":2223,"赖":2224,"赛":2225,"赞":2226,"赢":2227,"赣":2228,"走":2229,"赴":2230,"赶":2231,"起":2232,"超":2233,"越":2234,"趋":2235,"趣":2236,"趨":2237,"足":2238,"跃":2239,"跑":2240,"距":2241,"跟":2242,"跨":2243,"路":2244,"跳":2245,"践":2246,"踏":2247,"踢":2248,"踩":2249,"踪":2250,"蹤":2251,"身":2252,"躲":2253,"軸":2254,"較":2255,"輔":2256,"輸":2257,"轉":2258,"车":2259,"轨":2260,"转":2261,"轮":2262,"软":2263,"轰":2264,"轴":2265,"轻":2266,"载":2267,"较":2268,"辅":2269,"辑":2270,"输":2271,"辛":2272,"辞":2273,"辦":2274,"辨":2275,"辩":2276,"辱":2277,"边":2278,"达":2279,"迁":2280,"过":2281,"迈":2282,"运":2283,"近":2284,"返":2285,"还":2286,"这":2287,"进":2288,"远":2289,"违":2290,"连":2291,"迟":2292,"迦":2293,"迪":2294,"迫":2295,"迭":2296,"述":2297,"迷":2298,"迹":2299,"追":2300,"退":2301,"送":2302,"适":2303,"逃":2304,"逆":2305,"选":2306,"透":2307,"逐":2308,"递":2309,"途":2310,"逗":2311,"這":2312,"通":2313,"逝":2314,"速":2315,"造":2316,"逢":2317,"連":2318,"進":2319,"逸":2320,"逻":2321,"逼":2322,"遇":2323,"遍":2324,"過":2325,"道":2326,"達":2327,"遗":2328,"遥":2329,"適":2330,"遮":2331,"遵":2332,"遷":2333,"選":2334,"遽":2335,"避":2336,"邀":2337,"還":2338,"邊":2339,"那":2340,"邦":2341,"邮":2342,"邻":2343,"部":2344,"都":2345,"配":2346,"酯":2347,"酸":2348,"醒":2349,"醫":2350,"采":2351,"释":2352,"釋":2353,"里":2354,"重":2355,"野":2356,"量":2357,"釐":2358,"金":2359,"針":2360,"鉴":2361,"銷":2362,"錄":2363,"鍵":2364,"鐘":2365,"针":2366,"钉":2367,"钓":2368,"钟":2369,"钥":2370,"钩":2371,"钮":2372,"钱":2373,"钾":2374,"铁":2375,"铜":2376,"银":2377,"链":2378,"销":2379,"锁":2380,"锐":2381,"错":2382,"锚":2383,"锤":2384,"键":2385,"锯":2386,"镂":2387,"镜":2388,"長":2389,"长":2390,"開":2391,"間":2392,"關":2393,"门":2394,"闩":2395,"闪":2396,"闭":2397,"问":2398,"闯":2399,"闲":2400,"间":2401,"闸":2402,"闻":2403,"阅":2404,"阈":2405,"阐":2406,"队":2407,"阡":2408,"阱":2409,"防":2410,"阳":2411,"阵":2412,"阶":2413,"阻":2414,"阿":2415,"附":2416,"际":2417,"陆":2418,"陈":2419,"陌":2420,"降":2421,"限":2422,"院":2423,"除":2424,"险":2425,"陷":2426,"陸":2427,"隆":2428,"隊":2429,"階":2430,"随":2431,"隐":2432,"隔":2433,"隙":2434,"際":2435,"障":2436,"隧":2437,"隨":2438,"險":2439,"难":2440,"雀":2441,"雄":2442,"雅":2443,"集":2444,"雇":2445,"雙":2446,"難":2447,"雪":2448,"零":2449,"雷":2450,"需":2451,"霍":2452,"露":2453,"青":2454,"静":2455,"非":2456,"靠":2457,"面":2458,"革":2459,"靶":2460,"韓":2461,"韧":2462,"韩":2463,"音":2464,"韵":2465,"響":2466,"項":2467,"預":2468,"領":2469,"頭":2470,"頻":2471,"題":2472,"額":2473,"願":2474,"類":2475,"顧":2476,"顯":2477,"页":2478,"顶":2479,"项":2480,"顺":2481,"须":2482,"顾":2483,"颁":2484,"预":2485,"领":2486,"颈":2487,"频":2488,"颗":2489,"题":2490,"颜":2491,"额":2492,"颠":2493,"风":2494,"飞":2495,"食":2496,"飽":2497,"餐":2498,"饰":2499,"饵":2500,"馈":2501,"馏":2502,"首":2503,"香":2504,"驅":2505,"驗":2506,"驟":2507,"马":2508,"驱":2509,"驳":2510,"驶":2511,"驻":2512,"驼":2513,"驾":2514,"骂":2515,"验":2516,"骗":2517,"骚":2518,"骤":2519,"骨":2520,"體":2521,"高":2522,"鬆":2523,"魔":2524,"鱼":2525,"鲁":2526,"鲜":2527,"鲸":2528,"麼":2529,"黄":2530,"黑":2531,"默":2532,"點":2533,"鼠":2534,"齐":2535,"齿":2536,"龙":2537,"가":2538,"갑":2539,"개":2540,"거":2541,"검":2542,"것":2543,"겠":2544,"견":2545,"계":2546,"고":2547,"과":2548,"관":2549,"구":2550,"국":2551,"근":2552,"기":2553,"까":2554,"나":2555,"녕":2556,"논":2557,"는":2558,"니":2559,"다":2560,"단":2561,"답":2562,"대":2563,"도":2564,"동":2565,"라":2566,"로":2567,"록":2568,"료":2569,"르":2570,"링":2571,"만":2572,"메":2573,"모":2574,"무":2575,"문":2576,"민":2577,"반":2578,"받":2579,"방":2580,"법":2581,"변":2582,"별":2583,"보":2584,"부":2585,"분":2586,"사":2587,"서":2588,"석":2589,"설":2590,"성":2591,"세":2592,"속":2593,"수":2594,"술":2595,"습":2596,"식":2597,"실":2598,"심":2599,"쓰":2600,"아":2601,"안":2602,"았":2603,"어":2604,"엇":2605,"에":2606,"연":2607,"영":2608,"와":2609,"완":2610,"요":2611,"용":2612,"워":2613,"원":2614,"위":2615,"을":2616,"의":2617,"이":2618,"인":2619,"입":2620,"자":2621,"작":2622,"잡":2623,"적":2624,"전":2625,"점":2626,"정":2627,"제":2628,"조":2629,"종":2630,"주":2631,"줘":2632,"지":2633,"찰":2634,"체":2635,"초":2636,"측":2637,"층":2638,"크":2639,"타":2640,"터":2641,"트":2642,"파":2643,"팩":2644,"평":2645,"프":2646,"플":2647,"하":2648,"학":2649,"한":2650,"할":2651,"합":2652,"해":2653,"향":2654,"헌":2655,"형":2656,"확":2657,"환":2658,"회":2659,"획":2660,"﻿":2661,"！":2662,"＇":2663,"（":2664,"）":2665,"，":2666,"．":2667,"：":2668,"；":2669,"＜":2670,"＞":2671,"？":2672,"ｃ":2673,"ｅ":2674,"ｏ":2675,"ｐ":2676,"ｒ":2677,"ｘ":2678,"￥":2679,"�":2680,"𝒢":2681,"𝒵":2682,"𝔢":2683,"𝔥":2684,"𝔩":2685,"𝔪":2686,"𝔬":2687,"𝔽":2688,"🄴":2689,"🄷":2690,"🄻":2691,"🄾":2692,"🌊":2693,"🌌":2694,"🌐":2695,"🌑":2696,"🌔":2697,"🌕":2698,"🌳":2699,"🌸":2700,"🍽":2701,"🎉":2702,"🎊":2703,"🎓":2704,"🎚":2705,"🎤":2706,"🎨":2707,"🎬":2708,"🎭":2709,"🎯":2710,"🏁":2711,"🏓":2712,"🏗":2713,"🏠":2714,"🏢":2715,"🏥":2716,"🏷":2717,"🐍":2718,"🐛":2719,"🐳":2720,"👀":2721,"👋":2722,"👍":2723,"👤":2724,"👥":2725,"👦":2726,"👧":2727,"👨":2728,"👩":2729,"👯":2730,"💀":2731,"💊":2732,"💞":2733,"💡":2734,"💣":2735,"💥":2736,"💬":2737,"💯":2738,"💰":2739,"💱":2740,"💾":2741,"📁":2742,"📂":2743,"📄":2744,"📅":2745,"📈":2746,"📊":2747,"📋":2748,"📌":2749,"📍":2750,"📎":2751,"📏":2752,"📐":2753,"📑":2754,"📔":2755,"📖":2756,"📘":2757,"📚":2758,"📜":2759,"📝":2760,"📞":2761,"📡":2762,"📤":2763,"📥":2764,"📦":2765,"📧":2766,"📩":2767,"📱":2768,"📷":2769,"📸":2770,"📹":2771,"🔁":2772,"🔄":2773,"🔇":2774,"🔊":2775,"🔌":2776,"🔍":2777,"🔐":2778,"🔑":2779,"🔒":2780,"🔓":2781,"🔗":2782,"🔢":2783,"🔥":2784,"🔧":2785,"🔬":2786,"🔴":2787,"🔵":2788,"🕐":2789,"🕰":2790,"🕸":2791,"🖥":2792,"🗂":2793,"🗃":2794,"🗄":2795,"🗺":2796,"😄":2797,"😎":2798,"😐":2799,"😤":2800,"😬":2801,"🚀":2802,"🚚":2803,"🚦":2804,"🚧":2805,"🚨":2806,"🚫":2807,"🛑":2808,"🛒":2809,"🛡":2810,"🟠":2811,"🟡":2812,"🟢":2813,"🟣":2814,"🤔":2815,"🤖":2816,"🤗":2817,"🤝":2818,"🤩":2819,"🥚":2820,"🥦":2821,"🦖":2822,"🦠":2823,"🦴":2824,"🧠":2825,"🧪":2826,"🧫":2827,"🧬":2828,"🧱":2829,"🧶":2830,"🩸":2831,"🫛":2832,"re":2833,"in":2834,"on":2835,"er":2836,"at":2837,"or":2838,"en":2839,"st":2840,"an":2841,"th":2842,"al":2843,"es":2844,"ion":2845,"ar":2846,"se":2847,"le":2848,"ro":2849,"it":2850,"ing":2851,"de":2852,"ct":2853,"co":2854,"ic":2855,"ent":2856,"ed":2857,"ch":2858,"is":2859,"and":2860,"the":2861,"me":2862,"lo":2863,"as":2864,"to":2865,"con":2866,"un":2867,"ation":2868,"ap":2869,"mp":2870,"ge":2871,"ut":2872,"for":2873,"ex":2874,"il":2875,"ce":2876,"id":2877,"ad":2878,"ur":2879,"pro":2880,"ig":2881,"ul":2882,"ate":2883,"ab":2884,"no":2885,"if":2886,"tr":2887,"ver":2888,"us":2889,"res":2890,"ac":2891,"ve":2892,"te":2893,"ter":2894,"qu":2895,"mo":2896,"pe":2897,"li":2898,"po":2899,"s.":2900,"do":2901,"ment":2902,"ri":2903,"ly":2904,"ith":2905,"ag":2906,"s,":2907,"ne":2908,"fi":2909,"su":2910,"ction":2911,"vi":2912,"pl":2913,"am":2914,"ol":2915,"ti":2916,"with":2917,"fe":2918,"wh":2919,"ort":2920,"di":2921,"per":2922,"ame":2923,"ma":2924,"use":2925,"dat":2926,"be":2927,"--":2928,"str":2929,"sh":2930,"ren":2931,"ess":2932,"ity":2933,"pt":2934,"not":2935,"cl":2936,"ty":2937,"val":2938,"ke":2939,"of":2940,"el":2941,"sc":2942,"ay":2943,"act":2944,"comp":2945,"──":2946,"age":2947,"ht":2948,"all":2949,"iz":2950,"com":2951,"are":2952,"out":2953,"ts":2954,"wor":2955,"ure":2956,"cont":2957,"mat":2958,"up":2959,"bo":2960,"data":2961,"//":2962,"()":2963,"fa":2964,"ack":2965,"gr":2966,"s:":2967,"rom":2968,"get":2969,"lin":2970,"able":2971,"pat":2972,"00":2973,"ck":2974,"from":2975,"par":2976,"che":2977,"col":2978,"au":2979,"our":2980,"ext":2981,"ser":2982,"end":2983,"ase":2984,"om":2985,"um":2986,"low":2987,"port":2988,"work":2989,"imp":2990,"ive":2991,"der":2992,"user":2993,");":2994,"set":2995,"im":2996,"ain":2997,"ist":2998,"cre":2999,"ass":3000,"name":3001,"ue":3002,"pre":3003,"fo":3004,"int":3005,"\",":3006,"requ":3007,"ste":3008,"des":3009,"ical":3010,"ust":3011,"log":3012,"ho":3013,"run":3014,"du":3015,"\":":3016,"sion":3017,"ill":3018,"op":3019,"feren":3020,"gen":3021,"ite":3022,"mode":3023,"he":3024,"app":3025,"..":3026,"mar":3027,"when":3028,"put":3029,"we":3030,"one":3031,"ign":3032,").":3033,"file":3034,"spe":3035,"aw":3036,"ies":3037,"bu":3038,"read":3039,"test":3040,"by":3041,"ard":3042,"md":3043,"comm":3044,"ces":3045,"ial":3046,"ript":3047,"ding":3048,"amp":3049,"time":3050,"ph":3051,"py":3052,"je":3053,"form":3054,"ult":3055,"red":3056,"s/":3057,"art":3058,"fig":3059,"ant":3060,"type":3061,"pr":3062,"ded":3063,"et":3064,"est":3065,"fin":3066,"av":3067,"cor":3068,"sy":3069,"ib":3070,"ew":3071,"und":3072,"ory":3073,"ance":3074,"tp":3075,"ific":3076,"view":3077,"ated":3078,"min":3079,"),":3080,"this":3081,"line":3082,"ject":3083,"ip":3084,"io":3085,"api":3086,"inter":3087,"wr":3088,"key":3089,"cess":3090,"ans":3091,"ight":3092,"arch":3093,"af":3094,"ev":3095,"path":3096,"fil":3097,"dis":3098,"http":3099,"model":3100,"so":3101,"cur":3102,"────":3103,"check":3104,"sk":3105,"referen":3106,"back":3107,"stat":3108,"err":3109,"load":3110,"ition":3111,"sp":3112,"ice":3113,"ub":3114,"ob":3115,"text":3116,"only":3117,"ll":3118,"les":3119,"ss":3120,"cal":3121,"chan":3122,"js":3123,"ret":3124,"var":3125,"ers":3126,"code":3127,"fr":3128,"aph":3129,"doc":3130,"import":3131,"color":3132,"pri":3133,"stru":3134,"can":3135,"ual":3136,"spec":3137,"cli":3138,"ca":3139,"gro":3140,"ai":3141,"cr":3142,"auth":3143,"agent":3144,"wn":3145,"sub":3146,"ize":3147,"list":3148,"coun":3149,"urn":3150,"(\"":3151,"sd":3152,"ource":3153,"ok":3154,"requi":3155,"ence":3156,"flow":3157,"error":3158,"ace":3159,"aly":3160,"fore":3161,"that":3162,"rect":3163,"ations":3164,"reg":3165,"es,":3166,"ds":3167,"man":3168,"0.":3169,"config":3170,"tern":3171,"graph":3172,"ta":3173,"ide":3174,"ask":3175,"row":3176,"tar":3177,"20":3178,"dep":3179,"',":3180,"valid":3181,"over":3182,"br":3183,"return":3184,"sho":3185,"lab":3186,"=\"":3187,"iv":3188,"ms":3189,"fir":3190,"gu":3191,"plic":3192,"sdk":3193,"trans":3194,"search":3195,".md":3196,"state":3197,"skill":3198,"vis":3199,"ull":3200,"produ":3201,"add":3202,"vide":3203,"1.":3204,"px":3205,"fl":3206,"ou":3207,"gener":3208,"):":3209,"base":3210,"mit":3211,"ait":3212,"sing":3213,"const":3214,"report":3215,"analy":3216,"fun":3217,"before":3218,"tool":3219,"ary":3220,"\")":3221,"serv":3222,"quer":3223,"json":3224,"cy":3225,"buil":3226,"ility":3227,"pres":3228,"target":3229,"es.":3230,"ach":3231,"inst":3232,"but":3233,"tho":3234,"ken":3235,"output":3236,"string":3237,"ify":3238,"struct":3239,"led":3240,"ick":3241,"ption":3242,"lect":3243,"step":3244,"go":3245,"action":3246,"count":3247,"call":3248,"bin":3249,"source":3250,"video":3251,"pi":3252,"you":3253,"version":3254,"ics":3255,"very":3256,"mis":3257,"new":3258,"-s":3259,"create":3260,"value":3261,"dy":3262,"10":3263,"vari":3264,"ci":3265,"defa":3266,"ug":3267,"token":3268,"url":3269,"script":3270,"function":3271,"lay":3272,"cript":3273,"ting":3274,"ample":3275,"ther":3276,"ff":3277,"ization":3278,"ative":3279,"ml":3280,"lic":3281,"('":3282,"stre":3283,"ature":3284,"fiel":3285,"ens":3286,"ep":3287,"metr":3288,"metho":3289,"oom":3290,"stream":3291,"hand":3292,"event":3293,"ument":3294,"start":3295,"document":3296,"query":3297,"s://":3298,"request":3299,"2.":3300,"med":3301,"ution":3302,"mul":3303,"mb":3304,"default":3305,"input":3306,"pattern":3307,"class":3308,"cle":3309,"sup":3310,"clo":3311,"client":3312,"https://":3313,"mary":3314,"date":3315,"ator":3316,"temp":3317,"ient":3318,"page":3319,"content":3320,".com":3321,"multi":3322,"sco":3323,"ute":3324,"pass":3325,"lement":3326,"net":3327,"ing,":3328,"valu":3329,"...":3330,"clu":3331,"dr":3332,"ession":3333,"project":3334,"contro":3335,"ak":3336,"direct":3337,"nam":3338,"pon":3339,"await":3340,"tre":3341,"true":3342,"==":3343,"format":3344,"ures":3345,"reference":3346,"head":3347,"sa":3348,"_id":3349,"main":3350,"ast":3351,"comple":3352,"num":3353,"point":3354,"cap":3355,"sis":3356,"match":3357,"win":3358,"syste":3359,"order":3360,"option":3361,"ong":3362,"web":3363,"label":3364,"local":3365,"respon":3366,"whe":3367,"first":3368,"ash":3369,"ot":3370,"status":3371,"rent":3372,"process":3373,"vo":3374,"nc":3375,"ec":3376,"oper":3377,"sign":3378,"met":3379,"cat":3380,"post":3381,"vel":3382,"result":3383,"sum":3384,"map":3385,"igh":3386,"typ":3387,"any":3388,"12":3389,"specific":3390,"recor":3391,"ates":3392,"ation,":3393,"auto":3394,"fix":3395,"ine":3396,"db":3397,"ron":3398,"fail":3399,"workflow":3400,"ef":3401,"descript":3402,"cp":3403,"dif":3404,"ating":3405,"conne":3406,"eng":3407,"zoom":3408,"lock":3409,"inclu":3410,"what":3411,"cust":3412,"s)":3413,"ud":3414,"mi":3415,"review":3416,"build":3417,"references":3418,"context":3419,"────────":3420,"off":3421,"your":3422,"ing.":3423,"on-":3424,"dex":3425,"pos":3426,"limit":3427,"custom":3428,"control":3429,"ha":3430,"open":3431,"tim":3432,"field":3433,"frame":3434,"env":3435,"uld":3436,"design":3437,"must":3438,"mark":3439,"sur":3440,"ail":3441,"select":3442,"ber":3443,"its":3444,"description":3445,"table":3446,"analysis":3447,"play":3448,"mon":3449,"inte":3450,"ross":3451,"my":3452,"meet":3453,"----":3454,"cond":3455,"vs":3456,"without":3457,"3.":3458,"onent":3459,"support":3460,"g.":3461,"stand":3462,"each":3463,"tion":3464,"component":3465,"after":3466,"df":3467,"══":3468,"down":3469,"index":3470,"session":3471,"full":3472,"high":3473,"every":3474,"ata":3475,"pyth":3476,"ident":3477,"filter":3478,"task":3479,"late":3480,"pub":3481,"->":3482,"mess":3483,"e.":3484,"face":3485,"group":3486,"level":3487,"ability":3488,"dist":3489,"datab":3490,"python":3491,"section":3492,"ql":3493,"size":3494,"bi":3495,"fer":3496,"server":3497,"rel":3498,"meeting":3499,"command":3500,"atch":3501,"structure":3502,"adata":3503,"ifi":3504,"share":3505,"fol":3506,"es:":3507,"cent":3508,"need":3509,"fect":3510,"ateg":3511,"vid":3512,"ible":3513,"print":3514,"exec":3515,"system":3516,"way":3517,"},":3518,"</":3519,"iter":3520,"100":3521,"ults":3522,"sed":3523,"ning":3524,"arr":3525,"ont":3526,"();":3527,"example":3528,"dow":3529,"pect":3530,"ality":3531,"exist":3532,"sol":3533,"window":3534,"sche":3535,"25":3536,"depend":3537,"ments":3538,"access":3539,"method":3540,"colors.":3541,"part":3542,"ax":3543,"required":3544,"sel":3545,"0,":3546,"ation.":3547,"ages":3548,"response":3549,"{colors.":3550,"product":3551,"her":3552,"top":3553,"author":3554,"asy":3555,"ref":3556,"appro":3557,"service":3558,"::":3559,"ground":3560,"ir":3561,"defin":3562,"}\"":3563,"parame":3564,"ima":3565,"let":3566,"medi":3567,"render":3568,"ger":3569,"vent":3570,"remo":3571,"current":3572,"max":3573,"files":3574,"hel":3575,"pack":3576,"issu":3577,"sto":3578,"block":3579,"object":3580,"image":3581,".com/":3582,"plan":3583,"});":3584,"=>":3585,"idence":3586,"body":3587,"cons":3588,"parameter":3589,"lan":3590,"tw":3591,"lection":3592,"ables":3593,"link":3594,"host":3595,"same":3596,"see":3597,"s-":3598,"')":3599,"cho":3600,"chang":3601,"scal":3602,"s;":3603,"self":3604,"name:":3605,"sm":3606,"logy":3607,"plo":3608,"where":3609,"thes":3610,"graphy":3611,"og":3612,"rc":3613,"write":3614,"bio":3615,"**":3616,"er.":3617,"sty":3618,"hy":3619,"dev":3620,"ced":3621,"ish":3622,"node":3623,"visual":3624,"tit":3625,"colum":3626,"column":3627,"cept":3628,"results":3629,"ency":3630,"\"]":3631,"single":3632,"card":3633,"loc":3634,"({":3635,"contain":3636,"install":3637,"ell":3638,"cla":3639,"integr":3640,"metadata":3641,"using":3642,"async":3643,"proper":3644,"cover":3645,"4.":3646,"change":3647,"cell":3648,"old":3649,"ctor":3650,"t.":3651,"has":3652,"pipe":3653,"profile":3654,"envi":3655,"resol":3656,"environ":3657,"ich":3658,"[\"":3659,"ification":3660,"exper":3661,"background":3662,"word":3663,"jo":3664,"avail":3665,"-d":3666,"expect":3667,"os":3668,"place":3669,"://":3670,"ized":3671,"1,":3672,"primary":3673,"mic":3674,"lar":3675,"other":3676,"side":3677,"raw":3678,"ler":3679,"mal":3680,"init":3681,"ran":3682,"require":3683,"does":3684,".get":3685,"xx":3686,"references/":3687,"ple":3688,"loy":3689,"box":3690,"ree":3691,"thro":3692,"unded":3693,"plicit":3694,"rate":3695,"explicit":3696,"itor":3697,"core":3698,"bl":3699,"train":3700,"pa":3701,"cer":3702,"active":3703,"ling":3704,"schema":3705,"char":3706,"should":3707,"cs":3708,"show":3709,"claim":3710,"mem":3711,"proto":3712,"ources":3713,"tag":3714,"ension":3715,"prob":3716,"include":3717,"202":3718,"case":3719,"ed.":3720,"pay":3721,"into":3722,"ugh":3723,"sequ":3724,"via":3725,"title":3726,"tch":3727,"under":3728,"message":3729,"reen":3730,"number":3731,"tract":3732,"fal":3733,"ink":3734,"batch":3735,"item":3736,"sim":3737,"research":3738,"wid":3739,"used":3740,"effect":3741,"conver":3742,"common":3743,"uration":3744,"differen":3745,"standard":3746,"rt":3747,"mod":3748,"ket":3749,"update":3750,"ices":3751,"bre":3752,"phase":3753,"wi":3754,"available":3755,"how":3756,"16":3757,"nal":3758,"brow":3759,"org":3760,"ential":3761,"ules":3762,"绕过":3763,"false":3764,"verify":3765,"applic":3766,"deploy":3767,"ui":3768,"ous":3769,"evidence":3770,"amples":3771,"15":3772,"cloud":3773,"(f":3774,"nel":3775,"ule":3776,"safe":3777,"types":3778,"than":3779,"ions":3780,"ind":3781,"never":3782,"less":3783,"})":3784,"typo":3785,"environment":3786,"quality":3787,"resh":3788,"__":3789,"through":3790,"now":3791,"e.g.":3792,"dete":3793,"dec":3794,"null":3795,"butt":3796,"multiple":3797,"spac":3798,"syn":3799,"fast":3800,"summary":3801,"audi":3802,"1)":3803,"dele":3804,"export":3805,"prote":3806,"join":3807,"c.":3808,"validation":3809,"sure":3810,"optim":3811,"rele":3812,"present":3813,"layout":3814,"np":3815,"typography":3816,"correct":3817,"board":3818,"rat":3819,"mer":3820,"public":3821,"implement":3822,"keep":3823,"crit":3824,"rounded":3825,"bound":3826,"ear":3827,"metric":3828,"{\"":3829,"feature":3830,"ular":3831,"att":3832,"def":3833,"sl":3834,"s_":3835,"##":3836,"categ":3837,"sql":3838,"space":3839,"ful":3840,"separ":3841,"ense":3842,"tail":3843,"style":3844,"dir":3845,"based":3846,"ities":3847,"-0":3848,"ile":3849,"diag":3850,"ints":3851,"pap":3852,"air":3853,"ically":3854,"setting":3855,"pan":3856,"mcp":3857,"next":3858,"uses":3859,"ason":3860,"64":3861,"ps":3862,"que":3863,"flag":3864,"names":3865,"memory":3866,"writ":3867,"confir":3868,"ia":3869,"param":3870,"missing":3871,"ational":3872,"nor":3873,"values":3874,"vas":3875,"bal":3876,"使用":3877,"geo":3878,"condition":3879,"across":3880,"own":3881,"then":3882,"ved":3883,"array":3884,"recomm":3885,"domain":3886,"non-":3887,"od":3888,"complete":3889,"none":3890,"meas":3891,"s.md":3892,"uni":3893,"secre":3894,"real":3895,"runtime":3896,"html":3897,"root":3898,"war":3899,"wer":3900,"bet":3901,"ready":3902,"critical":3903,"sets":3904,"browser":3905,"database":3906,"ched":3907,"t-":3908,".py":3909,"ivity":3910,"shell":3911,"template":3912,"bug":3913,"evalu":3914,"ress":3915,"plat":3916,"fetch":3917,"ways":3918,"er-":3919,"like":3920,"],":3921,"ants":3922,"ie":3923,"send":3924,"\"\"":3925,"track":3926,"job":3927,"rout":3928,"ibility":3929,"treat":3930,"try":3931,"ifact":3932,"spect":3933,"font":3934,"pers":3935,"artifact":3936,"stor":3937,"cache":3938,"shap":3939,"perform":3940,"ade":3941,"stage":3942,"(e.g.":3943,"quest":3944,"${":3945,"ship":3946,"provid":3947,"tal":3948,"ben":3949,"book":3950,"lines":3951,"mail":3952,"surface":3953,"note":3954,"ified":3955,"connect":3956,"sw":3957,"alog":3958,"transform":3959,"setup":3960,"width":3961,"dro":3962,"ven":3963,"may":3964,"vol":3965,"y,":3966,"large":3967,"experi":3968,"car":3969,"platform":3970,"bar":3971,"info":3972,"payload":3973,"display":3974,"element":3975,"align":3976,".json":3977,"account":3978,"exact":3979,"std":3980,"mut":3981,"ision":3982,"ux":3983,"anch":3984,"adding":3985,"stu":3986,"don":3987,"equ":3988,"='":3989,"sample":3990,"pipeline":3991,"na":3992,"canvas":3993,"screen":3994,"protocol":3995,"gate":3996,"polic":3997,"admin":3998,"ris":3999},"merges":[["r","e"],["i","n"],["o","n"],["e","r"],["a","t"],["o","r"],["e","n"],["s","t"],["a","n"],["t","h"],["a","l"],["e","s"],["i","on"],["a","r"],["s","e"],["l","e"],["r","o"],["i","t"],["in","g"],["d","e"],["c","t"],["c","o"],["i","c"],["en","t"],["e","d"],["c","h"],["i","s"],["an","d"],["th","e"],["m","e"],["l","o"],["a","s"],["t","o"],["c","on"],["u","n"],["at","ion"],["a","p"],["m","p"],["g","e"],["u","t"],["f","or"],["e","x"],["i","l"],["c","e"],["i","d"],["a","d"],["u","r"],["p","ro"],["i","g"],["u","l"],["at","e"],["a","b"],["n","o"],["i","f"],["t","r"],["v","er"],["u","s"],["re","s"],["a","c"],["v","e"],["t","e"],["t","er"],["q","u"],["m","o"],["p","e"],["l","i"],["p","o"],["s","."],["d","o"],["m","ent"],["r","i"],["l","y"],["i","th"],["a","g"],["s",","],["n","e"],["f","i"],["s","u"],["ct","ion"],["v","i"],["p","l"],["a","m"],["o","l"],["t","i"],["w","ith"],["f","e"],["w","h"],["or","t"],["d","i"],["p","er"],["a","me"],["m","a"],["u","se"],["d","at"],["b","e"],["-","-"],["st","r"],["s","h"],["re","n"],["es","s"],["it","y"],["p","t"],["no","t"],["c","l"],["t","y"],["v","al"],["k","e"],["o","f"],["e","l"],["s","c"],["a","y"],["a","ct"],["co","mp"],["─","─"],["a","ge"],["h","t"],["al","l"],["i","z"],["co","m"],["a","re"],["o","ut"],["t","s"],["w","or"],["u","re"],["con","t"],["m","at"],["u","p"],["b","o"],["dat","a"],["/","/"],["(",")"],["f","a"],["ac","k"],["g","r"],["s",":"],["ro","m"],["ge","t"],["l","in"],["ab","le"],["p","at"],["0","0"],["c","k"],["f","rom"],["p","ar"],["ch","e"],["co","l"],["a","u"],["o","ur"],["ex","t"],["s","er"],["en","d"],["a","se"],["o","m"],["u","m"],["lo","w"],["p","ort"],["wor","k"],["i","mp"],["i","ve"],["d","er"],["us","er"],[")",";"],["se","t"],["i","m"],["a","in"],["i","st"],["c","re"],["as","s"],["n","ame"],["u","e"],["p","re"],["f","o"],["in","t"],["\"",","],["re","qu"],["st","e"],["d","es"],["ic","al"],["u","st"],["lo","g"],["h","o"],["r","un"],["d","u"],["\"",":"],["s","ion"],["il","l"],["o","p"],["fe","ren"],["g","en"],["it","e"],["mo","de"],["h","e"],["ap","p"],[".","."],["m","ar"],["wh","en"],["p","ut"],["w","e"],["on","e"],["ig","n"],[")","."],["fi","le"],["s","pe"],["a","w"],["i","es"],["b","u"],["re","ad"],["te","st"],["b","y"],["ar","d"],["m","d"],["com","m"],["c","es"],["i","al"],["ri","pt"],["d","ing"],["a","mp"],["ti","me"],["p","h"],["p","y"],["j","e"],["for","m"],["ul","t"],["re","d"],["s","/"],["ar","t"],["f","ig"],["an","t"],["ty","pe"],["p","r"],["de","d"],["e","t"],["e","st"],["f","in"],["a","v"],["c","or"],["s","y"],["i","b"],["e","w"],["un","d"],["or","y"],["an","ce"],["t","p"],["if","ic"],["vi","ew"],["at","ed"],["m","in"],[")",","],["th","is"],["lin","e"],["je","ct"],["i","p"],["i","o"],["ap","i"],["in","ter"],["w","r"],["ke","y"],["c","ess"],["an","s"],["ig","ht"],["ar","ch"],["a","f"],["e","v"],["pat","h"],["f","il"],["d","is"],["ht","tp"],["mode","l"],["s","o"],["c","ur"],["──","──"],["che","ck"],["s","k"],["re","feren"],["b","ack"],["st","at"],["er","r"],["lo","ad"],["it","ion"],["s","p"],["ic","e"],["u","b"],["o","b"],["t","ext"],["on","ly"],["l","l"],["l","es"],["s","s"],["c","al"],["ch","an"],["j","s"],["re","t"],["v","ar"],["er","s"],["co","de"],["f","r"],["ap","h"],["do","c"],["imp","ort"],["col","or"],["p","ri"],["str","u"],["c","an"],["u","al"],["spe","c"],["c","li"],["c","a"],["g","ro"],["a","i"],["c","r"],["au","th"],["ag","ent"],["w","n"],["su","b"],["iz","e"],["li","st"],["co","un"],["ur","n"],["(","\""],["s","d"],["our","ce"],["o","k"],["requ","i"],["en","ce"],["f","low"],["err","or"],["a","ce"],["al","y"],["fo","re"],["th","at"],["re","ct"],["ation","s"],["re","g"],["es",","],["d","s"],["m","an"],["0","."],["con","fig"],["ter","n"],["gr","aph"],["t","a"],["i","de"],["as","k"],["ro","w"],["t","ar"],["2","0"],["de","p"],["'",","],["val","id"],["o","ver"],["b","r"],["ret","urn"],["sh","o"],["l","ab"],["=","\""],["i","v"],["m","s"],["fi","r"],["g","u"],["pl","ic"],["sd","k"],["tr","ans"],["se","arch"],[".","md"],["st","ate"],["sk","ill"],["v","is"],["ul","l"],["pro","du"],["ad","d"],["vi","de"],["1","."],["p","x"],["f","l"],["o","u"],["gen","er"],[")",":"],["b","ase"],["m","it"],["a","it"],["s","ing"],["con","st"],["re","port"],["an","aly"],["f","un"],["be","fore"],["to","ol"],["ar","y"],["\"",")"],["ser","v"],["qu","er"],["js","on"],["c","y"],["bu","il"],["il","ity"],["p","res"],["tar","get"],["es","."],["a","ch"],["in","st"],["b","ut"],["th","o"],["k","en"],["out","put"],["str","ing"],["if","y"],["stru","ct"],["le","d"],["ic","k"],["pt","ion"],["le","ct"],["ste","p"],["g","o"],["a","ction"],["coun","t"],["c","all"],["b","in"],["s","ource"],["vide","o"],["p","i"],["y","ou"],["ver","sion"],["ic","s"],["ver","y"],["m","is"],["ne","w"],["-","s"],["cre","ate"],["val","ue"],["d","y"],["1","0"],["var","i"],["c","i"],["de","fa"],["u","g"],["to","ken"],["ur","l"],["sc","ript"],["fun","ction"],["l","ay"],["c","ript"],["t","ing"],["amp","le"],["th","er"],["f","f"],["iz","ation"],["at","ive"],["m","l"],["l","ic"],["(","'"],["st","re"],["at","ure"],["fi","el"],["en","s"],["e","p"],["me","tr"],["me","tho"],["o","om"],["stre","am"],["h","and"],["ev","ent"],["u","ment"],["st","art"],["doc","ument"],["quer","y"],["s:","//"],["requ","est"],["2","."],["m","ed"],["ut","ion"],["m","ul"],["m","b"],["defa","ult"],["in","put"],["pat","tern"],["cl","ass"],["c","le"],["su","p"],["c","lo"],["cli","ent"],["http","s://"],["mar","y"],["d","ate"],["at","or"],["te","mp"],["i","ent"],["p","age"],["cont","ent"],[".","com"],["mul","ti"],["s","co"],["ut","e"],["p","ass"],["le","ment"],["ne","t"],["ing",","],["val","u"],["..","."],["cl","u"],["d","r"],["ess","ion"],["pro","ject"],["cont","ro"],["a","k"],["di","rect"],["n","am"],["p","on"],["aw","ait"],["t","re"],["tr","ue"],["=","="],["for","mat"],["u","res"],["referen","ce"],["he","ad"],["s","a"],["_","id"],["ma","in"],["a","st"],["comp","le"],["n","um"],["po","int"],["c","ap"],["s","is"],["mat","ch"],["w","in"],["sy","ste"],["or","der"],["o","ption"],["on","g"],["we","b"],["lab","el"],["lo","cal"],["res","pon"],["wh","e"],["fir","st"],["as","h"],["o","t"],["stat","us"],["ren","t"],["pro","cess"],["v","o"],["n","c"],["e","c"],["o","per"],["s","ign"],["me","t"],["c","at"],["po","st"],["ve","l"],["res","ult"],["su","m"],["m","ap"],["ig","h"],["ty","p"],["an","y"],["1","2"],["spec","ific"],["re","cor"],["at","es"],["ation",","],["au","to"],["fi","x"],["in","e"],["d","b"],["r","on"],["fa","il"],["work","flow"],["e","f"],["des","cript"],["c","p"],["d","if"],["at","ing"],["con","ne"],["en","g"],["z","oom"],["lo","ck"],["in","clu"],["wh","at"],["c","ust"],["s",")"],["u","d"],["m","i"],["re","view"],["buil","d"],["referen","ces"],["cont","ext"],["────","────"],["of","f"],["y","our"],["ing","."],["on","-"],["de","x"],["po","s"],["li","mit"],["cust","om"],["contro","l"],["h","a"],["op","en"],["ti","m"],["fiel","d"],["fr","ame"],["en","v"],["ul","d"],["des","ign"],["m","ust"],["mar","k"],["s","ur"],["a","il"],["se","lect"],["b","er"],["it","s"],["descript","ion"],["t","able"],["analy","sis"],["pl","ay"],["m","on"],["in","te"],["ro","ss"],["m","y"],["me","et"],["--","--"],["con","d"],["v","s"],["with","out"],["3","."],["on","ent"],["sup","port"],["g","."],["st","and"],["e","ach"],["t","ion"],["comp","onent"],["af","ter"],["d","f"],["═","═"],["do","wn"],["in","dex"],["s","ession"],["f","ull"],["h","igh"],["e","very"],["at","a"],["py","th"],["id","ent"],["fil","ter"],["t","ask"],["l","ate"],["p","ub"],["-",">"],["m","ess"],["e","."],["fa","ce"],["gro","up"],["le","vel"],["ab","ility"],["di","st"],["dat","ab"],["pyth","on"],["se","ction"],["q","l"],["s","ize"],["b","i"],["f","er"],["ser","ver"],["re","l"],["meet","ing"],["comm","and"],["at","ch"],["struct","ure"],["ad","ata"],["if","i"],["sh","are"],["f","ol"],["es",":"],["c","ent"],["ne","ed"],["fe","ct"],["ate","g"],["v","id"],["ib","le"],["pr","int"],["ex","ec"],["syste","m"],["w","ay"],["}",","],["<","/"],["it","er"],["1","00"],["ul","ts"],["se","d"],["n","ing"],["ar","r"],["on","t"],["()",";"],["ex","ample"],["do","w"],["pe","ct"],["al","ity"],["ex","ist"],["s","ol"],["win","dow"],["s","che"],["2","5"],["dep","end"],["ment","s"],["ac","cess"],["metho","d"],["color","s."],["par","t"],["a","x"],["requi","red"],["se","l"],["0",","],["ation","."],["ag","es"],["respon","se"],["{","colors."],["produ","ct"],["h","er"],["to","p"],["auth","or"],["as","y"],["re","f"],["ap","pro"],["serv","ice"],[":",":"],["gro","und"],["i","r"],["de","fin"],["}","\""],["par","ame"],["i","ma"],["le","t"],["med","i"],["ren","der"],["g","er"],["v","ent"],["re","mo"],["cur","rent"],["ma","x"],["fil","es"],["h","el"],["p","ack"],["is","su"],["st","o"],["b","lock"],["ob","ject"],["ima","ge"],[".com","/"],["pl","an"],["}",");"],["=",">"],["id","ence"],["bo","dy"],["con","s"],["parame","ter"],["l","an"],["t","w"],["le","ction"],["ab","les"],["lin","k"],["ho","st"],["s","ame"],["se","e"],["s","-"],["'",")"],["ch","o"],["chan","g"],["sc","al"],["s",";"],["sel","f"],["name",":"],["s","m"],["log","y"],["p","lo"],["whe","re"],["th","es"],["graph","y"],["o","g"],["r","c"],["wr","ite"],["b","io"],["*","*"],["er","."],["st","y"],["h","y"],["de","v"],["c","ed"],["is","h"],["no","de"],["vis","ual"],["t","it"],["col","um"],["colum","n"],["ce","pt"],["res","ults"],["en","cy"],["\"","]"],["sing","le"],["c","ard"],["lo","c"],["(","{"],["cont","ain"],["inst","all"],["el","l"],["cl","a"],["inte","gr"],["met","adata"],["us","ing"],["asy","nc"],["pro","per"],["co","ver"],["4","."],["chan","ge"],["ce","ll"],["ol","d"],["ct","or"],["t","."],["h","as"],["pi","pe"],["pro","file"],["en","vi"],["res","ol"],["envi","ron"],["ic","h"],["[","\""],["ific","ation"],["ex","per"],["back","ground"],["wor","d"],["j","o"],["av","ail"],["-","d"],["ex","pect"],["o","s"],["pl","ace"],[":","//"],["iz","ed"],["1",","],["pri","mary"],["m","ic"],["l","ar"],["o","ther"],["s","ide"],["r","aw"],["l","er"],["m","al"],["in","it"],["r","an"],["requi","re"],["do","es"],[".","get"],["x","x"],["references","/"],["p","le"],["lo","y"],["bo","x"],["re","e"],["th","ro"],["un","ded"],["plic","it"],["r","ate"],["ex","plicit"],["it","or"],["co","re"],["b","l"],["tr","ain"],["p","a"],["c","er"],["act","ive"],["l","ing"],["sche","ma"],["ch","ar"],["sho","uld"],["c","s"],["sho","w"],["cla","im"],["me","m"],["pro","to"],["our","ces"],["t","ag"],["en","sion"],["pro","b"],["inclu","de"],["20","2"],["c","ase"],["ed","."],["p","ay"],["in","to"],["ug","h"],["se","qu"],["vi","a"],["tit","le"],["t","ch"],["un","der"],["mess","age"],["re","en"],["num","ber"],["tr","act"],["f","al"],["in","k"],["b","atch"],["ite","m"],["s","im"],["re","search"],["w","id"],["use","d"],["ef","fect"],["con","ver"],["comm","on"],["ur","ation"],["dif","feren"],["stand","ard"],["r","t"],["mo","d"],["ke","t"],["up","date"],["ic","es"],["b","re"],["ph","ase"],["w","i"],["avail","able"],["ho","w"],["1","6"],["n","al"],["b","row"],["or","g"],["ent","ial"],["ul","es"],["绕","过"],["fal","se"],["ver","ify"],["ap","plic"],["dep","loy"],["u","i"],["o","us"],["ev","idence"],["amp","les"],["1","5"],["clo","ud"],["(","f"],["ne","l"],["u","le"],["sa","fe"],["typ","es"],["th","an"],["ion","s"],["in","d"],["ne","ver"],["l","ess"],["}",")"],["ty","po"],["environ","ment"],["qu","ality"],["res","h"],["_","_"],["thro","ugh"],["no","w"],["e.","g."],["de","te"],["de","c"],["n","ull"],["but","t"],["multi","ple"],["sp","ac"],["sy","n"],["fa","st"],["sum","mary"],["au","di"],["1",")"],["de","le"],["ex","port"],["pro","te"],["jo","in"],["c","."],["valid","ation"],["su","re"],["op","tim"],["re","le"],["pres","ent"],["lay","out"],["n","p"],["typo","graphy"],["cor","rect"],["bo","ard"],["r","at"],["m","er"],["pub","lic"],["imp","lement"],["ke","ep"],["cr","it"],["ro","unded"],["bo","und"],["e","ar"],["metr","ic"],["{","\""],["fe","ature"],["ul","ar"],["at","t"],["de","f"],["s","l"],["s","_"],["#","#"],["c","ateg"],["s","ql"],["sp","ace"],["f","ul"],["se","par"],["en","se"],["ta","il"],["sty","le"],["di","r"],["base","d"],["it","ies"],["-","0"],["i","le"],["di","ag"],["in","ts"],["p","ap"],["ai","r"],["ical","ly"],["set","ting"],["p","an"],["m","cp"],["n","ext"],["us","es"],["as","on"],["6","4"],["p","s"],["qu","e"],["fl","ag"],["nam","es"],["mem","ory"],["wr","it"],["con","fir"],["i","a"],["par","am"],["mis","sing"],["ation","al"],["n","or"],["valu","es"],["v","as"],["b","al"],["使","用"],["ge","o"],["cond","ition"],["ac","ross"],["o","wn"],["th","en"],["v","ed"],["arr","ay"],["re","comm"],["do","main"],["n","on-"],["o","d"],["comple","te"],["n","one"],["me","as"],["s.","md"],["un","i"],["se","cre"],["re","al"],["run","time"],["ht","ml"],["ro","ot"],["w","ar"],["w","er"],["be","t"],["read","y"],["crit","ical"],["se","ts"],["brow","ser"],["datab","ase"],["ch","ed"],["t","-"],[".","py"],["iv","ity"],["sh","ell"],["temp","late"],["bu","g"],["e","valu"],["res","s"],["pl","at"],["fe","tch"],["way","s"],["er","-"],["li","ke"],["]",","],["an","ts"],["i","e"],["s","end"],["\"","\""],["tr","ack"],["j","ob"],["ro","ut"],["ib","ility"],["tre","at"],["tr","y"],["if","act"],["spe","ct"],["f","ont"],["per","s"],["art","ifact"],["st","or"],["ca","che"],["sh","ap"],["per","form"],["a","de"],["st","age"],["(","e.g."],["qu","est"],["$","{"],["sh","ip"],["pro","vid"],["t","al"],["b","en"],["bo","ok"],["lin","es"],["ma","il"],["sur","face"],["no","te"],["ifi","ed"],["conne","ct"],["s","w"],["al","og"],["trans","form"],["set","up"],["wid","th"],["d","ro"],["v","en"],["ma","y"],["v","ol"],["y",","],["lar","ge"],["exper","i"],["c","ar"],["plat","form"],["b","ar"],["in","fo"],["pay","load"],["dis","play"],["e","lement"],["al","ign"],[".","json"],["ac","count"],["ex","act"],["st","d"],["m","ut"],["is","ion"],["u","x"],["an","ch"],["ad","ding"],["st","u"],["d","on"],["e","qu"],["=","'"],["s","ample"],["pipe","line"],["n","a"],["can","vas"],["sc","reen"],["proto","col"],["g","ate"],["po","lic"],["ad","min"],["r","is"]]}}