{"version":"1.0","truncation":null,"padding":null,"added_tokens":[{"id":0,"content":"[UNK]","single_word":false,"lstrip":false,"rstrip":false,"normalized":false,"special":true},{"id":1,"content":"[CLS]","single_word":false,"lstrip":false,"rstrip":false,"normalized":false,"special":true},{"id":2,"content":"[SEP]","single_word":false,"lstrip":false,"rstrip":false,"normalized":false,"special":true}],"normalizer":{"type":"Sequence","normalizers":[{"type":"Strip","strip_left":true,"strip_right":true},{"type":"StripAccents"},{"type":"Lowercase"},{"type":"NFC"}]},"pre_tokenizer":{"type":"WhitespaceSplit"},"post_processor":{"type":"TemplateProcessing","single":[{"SpecialToken":{"id":"[CLS]","type_id":0}},{"Sequence":{"id":"A","type_id":0}},{"SpecialToken":{"id":"[SEP]","type_id":0}}],"pair":[{"SpecialToken":{"id":"[CLS]","type_id":0}},{"Sequence":{"id":"A","type_id":0}},{"SpecialToken":{"id":"[SEP]","type_id":0}},{"Sequence":{"id":"B","type_id":1}},{"SpecialToken":{"id":"[SEP]","type_id":1}}],"special_tokens":{"[CLS]":{"id":"[CLS]","ids":[1],"tokens":["[CLS]"]},"[SEP]":{"id":"[SEP]","ids":[2],"tokens":["[SEP]"]}}},"decoder":{"type":"ByteFallback"},"model":{"type":"BPE","dropout":null,"unk_token":"[UNK]","continuing_subword_prefix":null,"end_of_word_suffix":null,"fuse_unk":false,"byte_fallback":false,"ignore_merges":false,"vocab":{"[UNK]":0,"[CLS]":1,"[SEP]":2,"\u0000":3,"\u0007":4,"\u0010":5,"\u001a":6,"!":7,"\"":8,"#":9,"$":10,"%":11,"&":12,"'":13,"(":14,")":15,"*":16,"+":17,",":18,"-":19,".":20,"/":21,"0":22,"1":23,"2":24,"3":25,"4":26,"5":27,"6":28,"7":29,"8":30,"9":31,":":32,";":33,"<":34,"=":35,">":36,"?":37,"@":38,"[":39,"\\":40,"]":41,"^":42,"_":43,"`":44,"a":45,"b":46,"c":47,"d":48,"e":49,"f":50,"g":51,"h":52,"i":53,"j":54,"k":55,"l":56,"m":57,"n":58,"o":59,"p":60,"q":61,"r":62,"s":63,"t":64,"u":65,"v":66,"w":67,"x":68,"y":69,"z":70,"{":71,"|":72,"}":73,"~":74,"":75,"¡":76,"£":77,"¥":78,"§":79,"©":80,"«":81,"¬":82,"®":83,"°":84,"±":85,"²":86,"³":87,"µ":88,"¶":89,"·":90,"¹":91,"»":92,"¼":93,"½":94,"¾":95,"×":96,"ß":97,"à":98,"á":99,"â":100,"ã":101,"ä":102,"å":103,"æ":104,"ç":105,"è":106,"é":107,"ê":108,"ë":109,"í":110,"ï":111,"ð":112,"ñ":113,"ò":114,"ó":115,"ô":116,"õ":117,"ö":118,"÷":119,"ø":120,"ü":121,"ÿ":122,"ć":123,"ĉ":124,"č":125,"đ":126,"ĝ":127,"ĥ":128,"ı":129,"ł":130,"ō":131,"ő":132,"ś":133,"ŝ":134,"ş":135,"š":136,"ţ":137,"ų":138,"ž":139,"ƒ":140,"ɒ":141,"ɪ":142,"ʊ":143,"ʸ":144,"˒":145,"ˣ":146,"̇":147,"α":148,"β":149,"γ":150,"δ":151,"ε":152,"ζ":153,"η":154,"θ":155,"κ":156,"λ":157,"μ":158,"ν":159,"ξ":160,"π":161,"ρ":162,"σ":163,"τ":164,"φ":165,"χ":166,"ψ":167,"ω":168,"а":169,"е":170,"о":171,"р":172,"с":173,"ب":174,"ح":175,"د":176,"ل":177,"م":178,"ه":179,"ᴵ":180,"ᴹ":181,"ᴼ":182,"ᵀ":183,"ᵃ":184,"ᵇ":185,"ᵈ":186,"ᵏ":187,"ᵐ":188,"ᵖ":189,"ᵝ":190,"ᵢ":191,"ᵣ":192,"ᵥ":193,"ᶜ":194,"ᶻ":195,"ḟ":196,"ṁ":197,"ṅ":198,"ẇ":199,"ẋ":200,"ẍ":201,"ẑ":202,"ạ":203,"ấ":204,"ẫ":205,"ặ":206,"ế":207,"ể":208,"ị":209,"ỗ":210,"ộ":211,"ở":212,"ứ":213,"​":214,"‌":215,"‍":216,"‎":217,"‑":218,"–":219,"—":220,"‖":221,"‘":222,"’":223,"“":224,"”":225,"†":226,"‡":227,"•":228,"…":229,"‰":230,"′":231,"″":232,"›":233,"⁠":234,"⁰":235,"⁴":236,"⁵":237,"⁶":238,"⁷":239,"⁸":240,"⁹":241,"⁺":242,"⁻":243,"⁽":244,"⁾":245,"ⁿ":246,"₀":247,"₁":248,"₂":249,"₃":250,"₄":251,"₅":252,"₆":253,"₇":254,"₈":255,"₉":256,"₊":257,"₋":258,"ₐ":259,"ₑ":260,"ₓ":261,"ₖ":262,"ₗ":263,"ₘ":264,"ₙ":265,"ₚ":266,"ₜ":267,"€":268,"ℂ":269,"ℏ":270,"ℓ":271,"ℕ":272,"ℚ":273,"ℝ":274,"™":275,"ℤ":276,"ℱ":277,"ℳ":278,"ℹ":279,"⅓":280,"←":281,"↑":282,"→":283,"↓":284,"↔":285,"↕":286,"↗":287,"↘":288,"↦":289,"↩":290,"↪":291,"↳":292,"↻":293,"⇄":294,"⇅":295,"⇌":296,"⇐":297,"⇒":298,"⇓":299,"⇔":300,"⇡":301,"⇣":302,"∀":303,"∂":304,"∃":305,"∅":306,"∆":307,"∇":308,"∈":309,"∉":310,"∑":311,"−":312,"√":313,"∝":314,"∞":315,"∥":316,"∧":317,"∨":318,"∩":319,"∪":320,"∫":321,"∼":322,"≈":323,"≠":324,"≡":325,"≤":326,"≥":327,"≪":328,"≫":329,"≲":330,"≳":331,"≶":332,"⊂":333,"⊃":334,"⊄":335,"⊆":336,"⊕":337,"⊗":338,"⊙":339,"⊞":340,"⊟":341,"⊢":342,"⊥":343,"⊨":344,"⊬":345,"⊭":346,"⊴":347,"⋆":348,"⌈":349,"⌉":350,"⌊":351,"⌋":352,"⌒":353,"⌓":354,"⌖":355,"⌘":356,"⌠":357,"⌡":358,"⌨":359,"⌭":360,"⎮":361,"⏎":362,"⏭":363,"⏰":364,"⏱":365,"⏳":366,"⏸":367,"①":368,"②":369,"③":370,"④":371,"ⓐ":372,"ⓔ":373,"ⓘ":374,"ⓛ":375,"ⓥ":376,"─":377,"━":378,"│":379,"┃":380,"┌":381,"┐":382,"└":383,"┘":384,"├":385,"┤":386,"┬":387,"┴":388,"┼":389,"╌":390,"═":391,"║":392,"╔":393,"╗":394,"╚":395,"╝":396,"╠":397,"╣":398,"╱":399,"╲":400,"▀":401,"▄":402,"█":403,"░":404,"■":405,"□":406,"▲":407,"△":408,"▶":409,"▸":410,"►":411,"▼":412,"◀":413,"◄":414,"◆":415,"◇":416,"◉":417,"○":418,"◎":419,"●":420,"◐":421,"◯":422,"◻":423,"☁":424,"★":425,"☆":426,"☉":427,"☐":428,"☑":429,"☒":430,"☸":431,"♪":432,"⚑":433,"⚖":434,"⚙":435,"⚠":436,"⚡":437,"⚪":438,"⛏":439,"⛔":440,"✂":441,"✅":442,"✍":443,"✏":444,"✓":445,"✔":446,"✕":447,"✗":448,"✘":449,"✨":450,"❌":451,"❓":452,"❯":453,"❶":454,"❷":455,"❸":456,"❹":457,"➡":458,"➤":459,"⟨":460,"⟩":461,"⟶":462,"⟹":463,"⟺":464,"⠙":465,"⤳":466,"⨯":467,"⬜":468,"⭐":469,"ⱼ":470,"、":471,"。":472,"《":473,"》":474,"「":475,"」":476,"『":477,"』":478,"【":479,"】":480,"い":481,"お":482,"か":483,"が":484,"く":485,"け":486,"こ":487,"さ":488,"し":489,"じ":490,"す":491,"た":492,"だ":493,"ち":494,"つ":495,"て":496,"で":497,"な":498,"に":499,"ね":500,"の":501,"は":502,"ま":503,"め":504,"も":505,"る":506,"れ":507,"を":508,"ん":509,"ア":510,"イ":511,"オ":512,"カ":513,"キ":514,"グ":515,"ジ":516,"ゼ":517,"タ":518,"ッ":519,"デ":520,"ト":521,"ナ":522,"バ":523,"ビ":524,"プ":525,"モ":526,"リ":527,"ル":528,"レ":529,"ロ":530,"ワ":531,"ン":532,"ー":533,"一":534,"丁":535,"七":536,"万":537,"三":538,"上":539,"下":540,"不":541,"与":542,"专":543,"且":544,"世":545,"丙":546,"业":547,"东":548,"丝":549,"丢":550,"两":551,"严":552,"並":553,"个":554,"中":555,"丰":556,"串":557,"临":558,"为":559,"主":560,"丽":561,"举":562,"乃":563,"久":564,"么":565,"义":566,"之":567,"乎":568,"乏":569,"乐":570,"乘":571,"乙":572,"九":573,"也":574,"习":575,"书":576,"买":577,"乱":578,"了":579,"予":580,"争":581,"事":582,"二":583,"于":584,"云":585,"互":586,"五":587,"井":588,"亚":589,"些":590,"亞":591,"亡":592,"交":593,"产":594,"享":595,"京":596,"亭":597,"亮":598,"亲":599,"人":600,"亿":601,"什":602,"仅":603,"仇":604,"今":605,"介":606,"仍":607,"从":608,"仑":609,"仓":610,"仔":611,"他":612,"付":613,"代":614,"令":615,"以":616,"仪":617,"们":618,"仲":619,"件":620,"价":621,"任":622,"份":623,"仿":624,"企":625,"伊":626,"伍":627,"伏":628,"休":629,"众":630,"优":631,"伙":632,"会":633,"传":634,"伤":635,"伦":636,"伪":637,"伯":638,"估":639,"伴":640,"伸":641,"似":642,"但":643,"位":644,"低":645,"住":646,"佐":647,"体":648,"佔":649,"何":650,"余":651,"作":652,"你":653,"佬":654,"佳":655,"使":656,"來":657,"例":658,"供":659,"依":660,"侦":661,"侧":662,"侵":663,"便":664,"係":665,"俄":666,"俗":667,"保":668,"信":669,"修":670,"個":671,"倍":672,"們":673,"倒":674,"候":675,"倚":676,"借":677,"倫":678,"值":679,"倾":680,"假":681,"偏":682,"做":683,"停":684,"健":685,"偶":686,"偷":687,"備":688,"储":689,"傾":690,"僅":691,"像":692,"僵":693,"儕":694,"儘":695,"儿":696,"允":697,"元":698,"兄":699,"充":700,"先":701,"光":702,"克":703,"免":704,"兑":705,"兜":706,"入":707,"內":708,"全":709,"兩":710,"八":711,"公":712,"六":713,"兰":714,"共":715,"关":716,"兴":717,"其":718,"具":719,"典":720,"兼":721,"内":722,"冊":723,"册":724,"再":725,"冒":726,"冗":727,"写":728,"军":729,"农":730,"冰":731,"冲":732,"决":733,"况":734,"冷":735,"冻":736,"净":737,"准":738,"凌":739,"减":740,"凑":741,"几":742,"凡":743,"凭":744,"凯":745,"出":746,"击":747,"函":748,"刀":749,"分":750,"切":751,"刊":752,"划":753,"列":754,"则":755,"刚":756,"创":757,"初":758,"删":759,"判":760,"別":761,"利":762,"别":763,"到":764,"制":765,"刷":766,"券":767,"刻":768,"剂":769,"則":770,"削":771,"前":772,"剥":773,"剧":774,"剩":775,"剪":776,"副":777,"割":778,"創":779,"劃":780,"劇":781,"力":782,"办":783,"功":784,"加":785,"务":786,"劣":787,"动":788,"助":789,"劫":790,"励":791,"劳":792,"势":793,"勒":794,"動":795,"務":796,"勢":797,"勾":798,"勿":799,"包":800,"化":801,"北":802,"匹":803,"区":804,"医":805,"匿":806,"區":807,"十":808,"千":809,"升":810,"半":811,"华":812,"协":813,"卓":814,"单":815,"卖":816,"南":817,"単":818,"博":819,"占":820,"卡":821,"卫":822,"印":823,"危":824,"即":825,"却":826,"卷":827,"卸":828,"厂":829,"厅":830,"历":831,"压":832,"厚":833,"原":834,"去":835,"参":836,"參":837,"又":838,"叉":839,"及":840,"友":841,"双":842,"反":843,"发":844,"取":845,"受":846,"变":847,"叙":848,"叛":849,"叠":850,"口":851,"古":852,"句":853,"另":854,"只":855,"叫":856,"召":857,"可":858,"台":859,"史":860,"右":861,"号":862,"司":863,"吃":864,"各":865,"合":866,"吊":867,"同":868,"名":869,"后":870,"向":871,"吗":872,"吞":873,"否":874,"吧":875,"含":876,"听":877,"启":878,"吸":879,"吻":880,"呈":881,"告":882,"员":883,"呢":884,"周":885,"味":886,"呼":887,"命":888,"和":889,"咨":890,"咬":891,"咱":892,"品":893,"哈":894,"响":895,"員":896,"哪":897,"哲":898,"哺":899,"唤":900,"唯":901,"啃":902,"商":903,"問":904,"喂":905,"善":906,"喜":907,"單":908,"喷":909,"嗅":910,"嗨":911,"嘉":912,"嘗":913,"嘯":914,"器":915,"噪":916,"噬":917,"嚴":918,"四":919,"回":920,"因":921,"团":922,"困":923,"围":924,"固":925,"国":926,"图":927,"圆":928,"圈":929,"國":930,"圍":931,"圖":932,"團":933,"在":934,"地":935,"场":936,"圾":937,"址":938,"均":939,"坍":940,"坏":941,"坐":942,"坑":943,"块":944,"坚":945,"坛":946,"坡":947,"坦":948,"坨":949,"垂":950,"垃":951,"型":952,"垒":953,"埋":954,"城":955,"域":956,"執":957,"培":958,"基":959,"堆":960,"堡":961,"報":962,"場":963,"堵":964,"塌":965,"塔":966,"塞":967,"填":968,"境":969,"墙":970,"增":971,"壇":972,"壓":973,"士":974,"壬":975,"声":976,"壳":977,"壹":978,"处":979,"备":980,"复":981,"外":982,"多":983,"够":984,"夠":985,"大":986,"天":987,"太":988,"夫":989,"央":990,"失":991,"头":992,"夸":993,"夹":994,"奇":995,"奏":996,"契":997,"奔":998,"奖":999,"套":1000,"奶":1001,"好":1002,"如":1003,"始":1004,"姓":1005,"委":1006,"姿":1007,"威":1008,"娃":1009,"娜":1010,"婉":1011,"媒":1012,"嫌":1013,"子":1014,"字":1015,"存":1016,"季":1017,"孤":1018,"学":1019,"學":1020,"宁":1021,"它":1022,"宇":1023,"守":1024,"安":1025,"完":1026,"宏":1027,"宕":1028,"宗":1029,"官":1030,"宙":1031,"定":1032,"宜":1033,"宝":1034,"实":1035,"审":1036,"客":1037,"宣":1038,"室":1039,"宫":1040,"害":1041,"家":1042,"容":1043,"宽":1044,"宿":1045,"寄":1046,"密":1047,"富":1048,"察":1049,"實":1050,"審":1051,"寫":1052,"寸":1053,"对":1054,"寻":1055,"导":1056,"対":1057,"封":1058,"射":1059,"将":1060,"將":1061,"專":1062,"尊":1063,"尋":1064,"對":1065,"導":1066,"小":1067,"少":1068,"尔":1069,"尚":1070,"尝":1071,"尤":1072,"就":1073,"尸":1074,"尺":1075,"尽":1076,"尾":1077,"局":1078,"层":1079,"居":1080,"屏":1081,"展":1082,"属":1083,"層":1084,"屬":1085,"岔":1086,"峰":1087,"峻":1088,"崖":1089,"崩":1090,"嵌":1091,"川":1092,"州":1093,"巡":1094,"工":1095,"左":1096,"巧":1097,"巨":1098,"差":1099,"己":1100,"已":1101,"巴":1102,"币":1103,"市":1104,"布":1105,"帆":1106,"师":1107,"希":1108,"帕":1109,"帖":1110,"帝":1111,"带":1112,"帧":1113,"師":1114,"席":1115,"帮":1116,"帶":1117,"常":1118,"幂":1119,"幅":1120,"幕":1121,"幫":1122,"干":1123,"平":1124,"年":1125,"并":1126,"幸":1127,"幻":1128,"广":1129,"床":1130,"序":1131,"库":1132,"应":1133,"底":1134,"店":1135,"庚":1136,"府":1137,"废":1138,"度":1139,"座":1140,"庫":1141,"庭":1142,"康":1143,"廣":1144,"延":1145,"建":1146,"开":1147,"异":1148,"弃":1149,"弄":1150,"式":1151,"引":1152,"弟":1153,"张":1154,"弯":1155,"弱":1156,"張":1157,"強":1158,"弹":1159,"强":1160,"归":1161,"当":1162,"录":1163,"形":1164,"彩":1165,"影":1166,"役":1167,"往":1168,"征":1169,"径":1170,"待":1171,"很":1172,"律":1173,"後":1174,"得":1175,"從":1176,"御":1177,"復":1178,"循":1179,"微":1180,"徴":1181,"徵":1182,"德":1183,"心":1184,"必":1185,"忆":1186,"忍":1187,"志":1188,"忘":1189,"忙":1190,"応":1191,"快":1192,"念":1193,"忽":1194,"怀":1195,"态":1196,"怎":1197,"怕":1198,"思":1199,"急":1200,"性":1201,"怪":1202,"总":1203,"恐":1204,"恒":1205,"恢":1206,"恤":1207,"恨":1208,"息":1209,"恰":1210,"恶":1211,"悉":1212,"悦":1213,"您":1214,"悬":1215,"情":1216,"惕":1217,"惠":1218,"惯":1219,"惰":1220,"想":1221,"意":1222,"愛":1223,"感":1224,"愿":1225,"態":1226,"慎":1227,"慢":1228,"慧":1229,"懂":1230,"應":1231,"懒":1232,"戊":1233,"戏":1234,"成":1235,"我":1236,"或":1237,"战":1238,"截":1239,"戰":1240,"戳":1241,"户":1242,"房":1243,"所":1244,"手":1245,"才":1246,"扎":1247,"扑":1248,"打":1249,"托":1250,"扣":1251,"执":1252,"扩":1253,"扫":1254,"扭":1255,"扮":1256,"扰":1257,"批":1258,"找":1259,"承":1260,"技":1261,"抄":1262,"把":1263,"抑":1264,"抓":1265,"投":1266,"抖":1267,"抗":1268,"折":1269,"抛":1270,"択":1271,"抢":1272,"护":1273,"报":1274,"披":1275,"抱":1276,"抵":1277,"抹":1278,"押":1279,"抽":1280,"担":1281,"拆":1282,"拉":1283,"拍":1284,"拐":1285,"拒":1286,"拓":1287,"拔":1288,"拖":1289,"招":1290,"拟":1291,"拥":1292,"拦":1293,"择":1294,"括":1295,"拳":1296,"拷":1297,"拼":1298,"拽":1299,"拾":1300,"拿":1301,"持":1302,"挂":1303,"指":1304,"按":1305,"挑":1306,"挖":1307,"挡":1308,"挤":1309,"挥":1310,"捆":1311,"捉":1312,"捕":1313,"损":1314,"捡":1315,"换":1316,"据":1317,"捷":1318,"掃":1319,"授":1320,"掉":1321,"掌":1322,"排":1323,"掘":1324,"採":1325,"探":1326,"接":1327,"控":1328,"推":1329,"掩":1330,"措":1331,"描":1332,"提":1333,"插":1334,"換":1335,"握":1336,"揭":1337,"搜":1338,"搞":1339,"搬":1340,"搭":1341,"携":1342,"摄":1343,"摇":1344,"摘":1345,"摧":1346,"摩":1347,"摸":1348,"撑":1349,"撒":1350,"撞":1351,"撤":1352,"播":1353,"撰":1354,"擇":1355,"擊":1356,"擋":1357,"操":1358,"擎":1359,"據":1360,"擦":1361,"擬":1362,"擴":1363,"擾":1364,"支":1365,"收":1366,"改":1367,"攻":1368,"放":1369,"政":1370,"故":1371,"效":1372,"敏":1373,"救":1374,"敗":1375,"教":1376,"敛":1377,"散":1378,"敬":1379,"数":1380,"整":1381,"數":1382,"文":1383,"料":1384,"斜":1385,"斥":1386,"斧":1387,"断":1388,"斯":1389,"新":1390,"斷":1391,"方":1392,"於":1393,"施":1394,"旁":1395,"旋":1396,"族":1397,"旗":1398,"无":1399,"既":1400,"日":1401,"旦":1402,"旧":1403,"旨":1404,"早":1405,"时":1406,"昂":1407,"昆":1408,"明":1409,"易":1410,"星":1411,"映":1412,"春":1413,"是":1414,"昵":1415,"显":1416,"時":1417,"晚":1418,"普":1419,"景":1420,"晰":1421,"智":1422,"暂":1423,"暗":1424,"暴":1425,"曲":1426,"更":1427,"書":1428,"曼":1429,"曾":1430,"替":1431,"最":1432,"會":1433,"月":1434,"有":1435,"朋":1436,"服":1437,"朗":1438,"望":1439,"朝":1440,"期":1441,"木":1442,"未":1443,"末":1444,"本":1445,"术":1446,"机":1447,"杀":1448,"杂":1449,"权":1450,"杆":1451,"材":1452,"杜":1453,"束":1454,"杠":1455,"条":1456,"来":1457,"杰":1458,"東":1459,"松":1460,"板":1461,"极":1462,"构":1463,"析":1464,"林":1465,"枚":1466,"果":1467,"枪":1468,"架":1469,"柄":1470,"某":1471,"染":1472,"查":1473,"柴":1474,"査":1475,"栅":1476,"标":1477,"栈":1478,"栏":1479,"树":1480,"校":1481,"样":1482,"核":1483,"根":1484,"格":1485,"框":1486,"案":1487,"桌":1488,"档":1489,"桥":1490,"桩":1491,"桶":1492,"梆":1493,"條":1494,"梦":1495,"梭":1496,"梯":1497,"械":1498,"梳":1499,"检":1500,"棒":1501,"棘":1502,"森":1503,"植":1504,"椭":1505,"楚":1506,"業":1507,"極":1508,"概":1509,"榜":1510,"榨":1511,"構":1512,"槛":1513,"槽":1514,"標":1515,"模":1516,"樣":1517,"横":1518,"機":1519,"檔":1520,"檢":1521,"次":1522,"欢":1523,"欺":1524,"款":1525,"歉":1526,"歐":1527,"止":1528,"正":1529,"此":1530,"步":1531,"武":1532,"歧":1533,"歸":1534,"死":1535,"殊":1536,"残":1537,"段":1538,"毁":1539,"母":1540,"每":1541,"毒":1542,"比":1543,"毕":1544,"毛":1545,"毫":1546,"民":1547,"氓":1548,"气":1549,"気":1550,"氧":1551,"氰":1552,"水":1553,"永":1554,"求":1555,"汇":1556,"汉":1557,"江":1558,"池":1559,"污":1560,"決":1561,"汽":1562,"沉":1563,"沙":1564,"沟":1565,"没":1566,"沦":1567,"油":1568,"治":1569,"沿":1570,"況":1571,"泄":1572,"法":1573,"泛":1574,"泡":1575,"波":1576,"注":1577,"洁":1578,"洋":1579,"洒":1580,"洗":1581,"洞":1582,"洪":1583,"洲":1584,"活":1585,"洽":1586,"派":1587,"流":1588,"浅":1589,"测":1590,"济":1591,"浏":1592,"浙":1593,"浪":1594,"浮":1595,"海":1596,"消":1597,"涉":1598,"润":1599,"涨":1600,"涵":1601,"淀":1602,"淆":1603,"淘":1604,"深":1605,"混":1606,"淹":1607,"添":1608,"清":1609,"渐":1610,"渗":1611,"減":1612,"渠":1613,"温":1614,"測":1615,"渲":1616,"游":1617,"溃":1618,"源":1619,"準":1620,"溢":1621,"溯":1622,"滑":1623,"滚":1624,"滞":1625,"满":1626,"滤":1627,"滥":1628,"滿":1629,"漂":1630,"漏":1631,"演":1632,"漫":1633,"潛":1634,"潜":1635,"激":1636,"濟":1637,"灌":1638,"灣":1639,"火":1640,"灭":1641,"灯":1642,"灰":1643,"灵":1644,"灾":1645,"炭":1646,"炸":1647,"点":1648,"為":1649,"炼":1650,"烂":1651,"烈":1652,"烟":1653,"烤":1654,"热":1655,"烽":1656,"焊":1657,"無":1658,"焦":1659,"焰":1660,"然":1661,"照":1662,"煽":1663,"熔":1664,"熟":1665,"熵":1666,"燃":1667,"爆":1668,"爬":1669,"爭":1670,"爱":1671,"父":1672,"片":1673,"版":1674,"牌":1675,"牙":1676,"牛":1677,"物":1678,"特":1679,"犯":1680,"状":1681,"犹":1682,"狀":1683,"狂":1684,"狐":1685,"狗":1686,"狠":1687,"狩":1688,"独":1689,"狱":1690,"猎":1691,"猜":1692,"猫":1693,"献":1694,"獨":1695,"獲":1696,"獻":1697,"率":1698,"王":1699,"玩":1700,"环":1701,"现":1702,"珠":1703,"班":1704,"現":1705,"球":1706,"理":1707,"瑞":1708,"環":1709,"瓶":1710,"甚":1711,"生":1712,"產":1713,"用":1714,"由":1715,"甲":1716,"申":1717,"电":1718,"画":1719,"界":1720,"留":1721,"畢":1722,"略":1723,"畫":1724,"異":1725,"畴":1726,"當":1727,"畸":1728,"疏":1729,"疑":1730,"疫":1731,"疲":1732,"病":1733,"症":1734,"痕":1735,"痪":1736,"瘦":1737,"瘫":1738,"療":1739,"癌":1740,"癸":1741,"登":1742,"發":1743,"白":1744,"百":1745,"的":1746,"皮":1747,"益":1748,"盐":1749,"监":1750,"盒":1751,"盖":1752,"盗":1753,"盘":1754,"監":1755,"目":1756,"盯":1757,"盲":1758,"直":1759,"相":1760,"盾":1761,"省":1762,"看":1763,"真":1764,"眠":1765,"眨":1766,"眼":1767,"着":1768,"睡":1769,"督":1770,"矛":1771,"矢":1772,"知":1773,"矩":1774,"短":1775,"石":1776,"矿":1777,"码":1778,"砍":1779,"研":1780,"砖":1781,"破":1782,"础":1783,"硝":1784,"硫":1785,"硬":1786,"确":1787,"碍":1788,"碎":1789,"碰":1790,"確":1791,"碼":1792,"磁":1793,"磕":1794,"磨":1795,"磺":1796,"礎":1797,"礙":1798,"示":1799,"礼":1800,"社":1801,"祖":1802,"神":1803,"票":1804,"禁":1805,"福":1806,"离":1807,"秀":1808,"私":1809,"种":1810,"科":1811,"秒":1812,"秘":1813,"租":1814,"积":1815,"称":1816,"移":1817,"稀":1818,"程":1819,"稍":1820,"種":1821,"稱":1822,"稳":1823,"稻":1824,"稿":1825,"積":1826,"穩":1827,"究":1828,"穷":1829,"空":1830,"穿":1831,"突":1832,"窃":1833,"窄":1834,"窗":1835,"立":1836,"站":1837,"竞":1838,"章":1839,"端":1840,"競":1841,"笔":1842,"笛":1843,"符":1844,"笨":1845,"第":1846,"笼":1847,"等":1848,"答":1849,"策":1850,"筛":1851,"签":1852,"简":1853,"算":1854,"管":1855,"箭":1856,"箱":1857,"節":1858,"範":1859,"篇":1860,"篡":1861,"簇":1862,"簡":1863,"簽":1864,"簿":1865,"籍":1866,"米":1867,"类":1868,"粒":1869,"粗":1870,"粘":1871,"粤":1872,"精":1873,"糊":1874,"系":1875,"約":1876,"納":1877,"級":1878,"素":1879,"索":1880,"紧":1881,"累":1882,"細":1883,"紹":1884,"終":1885,"組":1886,"結":1887,"絡":1888,"統":1889,"綁":1890,"經":1891,"綜":1892,"維":1893,"綱":1894,"網":1895,"緒":1896,"線":1897,"編":1898,"緩":1899,"緻":1900,"縮":1901,"縱":1902,"總":1903,"績":1904,"繁":1905,"織":1906,"繪":1907,"續":1908,"红":1909,"约":1910,"级":1911,"纪":1912,"纯":1913,"纲":1914,"纳":1915,"纵":1916,"纸":1917,"纹":1918,"线":1919,"练":1920,"组":1921,"细":1922,"织":1923,"终":1924,"绍":1925,"经":1926,"绑":1927,"绒":1928,"结":1929,"绕":1930,"绘":1931,"给":1932,"络":1933,"绝":1934,"统":1935,"继":1936,"绩":1937,"绪":1938,"续":1939,"维":1940,"综":1941,"绿":1942,"缀":1943,"缓":1944,"编":1945,"缘":1946,"缜":1947,"缩":1948,"缺":1949,"罐":1950,"网":1951,"罕":1952,"罗":1953,"罚":1954,"罪":1955,"置":1956,"署":1957,"羊":1958,"美":1959,"羟":1960,"群":1961,"義":1962,"習":1963,"翰":1964,"翻":1965,"老":1966,"考":1967,"者":1968,"而":1969,"耕":1970,"耗":1971,"耦":1972,"聊":1973,"职":1974,"联":1975,"聘":1976,"聚":1977,"聪":1978,"聲":1979,"職":1980,"肆":1981,"肉":1982,"股":1983,"肤":1984,"肥":1985,"肯":1986,"育":1987,"胀":1988,"胁":1989,"胆":1990,"背":1991,"胡":1992,"胶":1993,"能":1994,"脆":1995,"脈":1996,"脉":1997,"脏":1998,"脑":1999,"脚":2000,"脱":2001,"脸":2002,"腐":2003,"腺":2004,"腾":2005,"膨":2006,"臆":2007,"臨":2008,"自":2009,"至":2010,"致":2011,"舆":2012,"與":2013,"興":2014,"舍":2015,"舟":2016,"航":2017,"般":2018,"舰":2019,"艦":2020,"良":2021,"色":2022,"艺":2023,"节":2024,"芯":2025,"花":2026,"苏":2027,"苗":2028,"若":2029,"英":2030,"苹":2031,"范":2032,"草":2033,"荐":2034,"荒":2035,"药":2036,"荷":2037,"获":2038,"菜":2039,"萄":2040,"萎":2041,"萤":2042,"营":2043,"萬":2044,"落":2045,"著":2046,"葡":2047,"董":2048,"蒸":2049,"蓄":2050,"蓋":2051,"蓝":2052,"蔽":2053,"蕉":2054,"薄":2055,"薅":2056,"藏":2057,"蘇":2058,"虑":2059,"處":2060,"虚":2061,"虛":2062,"號":2063,"虫":2064,"虹":2065,"虽":2066,"蚁":2067,"蚂":2068,"蜜":2069,"蝶":2070,"融":2071,"蠕":2072,"行":2073,"衍":2074,"術":2075,"衔":2076,"街":2077,"衝":2078,"衡":2079,"补":2080,"表":2081,"衰":2082,"袋":2083,"袖":2084,"被":2085,"裁":2086,"裂":2087,"装":2088,"補":2089,"裤":2090,"裸":2091,"裹":2092,"褒":2093,"西":2094,"要":2095,"覆":2096,"見":2097,"規":2098,"視":2099,"親":2100,"覺":2101,"觀":2102,"见":2103,"观":2104,"规":2105,"视":2106,"览":2107,"觉":2108,"角":2109,"解":2110,"触":2111,"言":2112,"訂":2113,"計":2114,"訊":2115,"討":2116,"訪":2117,"設":2118,"註":2119,"評":2120,"詞":2121,"試":2122,"詮":2123,"話":2124,"誉":2125,"認":2126,"語":2127,"誤":2128,"說":2129,"説":2130,"課":2131,"調":2132,"談":2133,"請":2134,"論":2135,"諾":2136,"謀":2137,"證":2138,"警":2139,"議":2140,"護":2141,"譽":2142,"變":2143,"讓":2144,"计":2145,"订":2146,"认":2147,"讨":2148,"让":2149,"训":2150,"议":2151,"讯":2152,"记":2153,"讲":2154,"许":2155,"论":2156,"设":2157,"访":2158,"诀":2159,"证":2160,"评":2161,"识":2162,"诈":2163,"诉":2164,"诊":2165,"词":2166,"译":2167,"试":2168,"诗":2169,"诚":2170,"话":2171,"询":2172,"该":2173,"详":2174,"语":2175,"误":2176,"诱":2177,"说":2178,"诵":2179,"请":2180,"诸":2181,"诺":2182,"读":2183,"课":2184,"谁":2185,"调":2186,"谈":2187,"谓":2188,"谨":2189,"谬":2190,"谱":2191,"豁":2192,"豐":2193,"象":2194,"豫":2195,"貌":2196,"財":2197,"貫":2198,"責":2199,"貳":2200,"貴":2201,"費":2202,"資":2203,"質":2204,"賴":2205,"贝":2206,"负":2207,"贡":2208,"财":2209,"责":2210,"败":2211,"账":2212,"货":2213,"质":2214,"购":2215,"贴":2216,"贵":2217,"贷":2218,"费":2219,"资":2220,"赋":2221,"赏":2222,"赔":2223,"赖":2224,"赛":2225,"赞":2226,"赢":2227,"赣":2228,"走":2229,"赴":2230,"赶":2231,"起":2232,"超":2233,"越":2234,"趋":2235,"趣":2236,"趨":2237,"足":2238,"跃":2239,"跑":2240,"距":2241,"跟":2242,"跨":2243,"路":2244,"跳":2245,"践":2246,"踏":2247,"踢":2248,"踩":2249,"踪":2250,"蹤":2251,"身":2252,"躲":2253,"軸":2254,"較":2255,"輔":2256,"輸":2257,"轉":2258,"车":2259,"轨":2260,"转":2261,"轮":2262,"软":2263,"轰":2264,"轴":2265,"轻":2266,"载":2267,"较":2268,"辅":2269,"辑":2270,"输":2271,"辛":2272,"辞":2273,"辦":2274,"辨":2275,"辩":2276,"辱":2277,"边":2278,"达":2279,"迁":2280,"过":2281,"迈":2282,"运":2283,"近":2284,"返":2285,"还":2286,"这":2287,"进":2288,"远":2289,"违":2290,"连":2291,"迟":2292,"迦":2293,"迪":2294,"迫":2295,"迭":2296,"述":2297,"迷":2298,"迹":2299,"追":2300,"退":2301,"送":2302,"适":2303,"逃":2304,"逆":2305,"选":2306,"透":2307,"逐":2308,"递":2309,"途":2310,"逗":2311,"這":2312,"通":2313,"逝":2314,"速":2315,"造":2316,"逢":2317,"連":2318,"進":2319,"逸":2320,"逻":2321,"逼":2322,"遇":2323,"遍":2324,"過":2325,"道":2326,"達":2327,"遗":2328,"遥":2329,"適":2330,"遮":2331,"遵":2332,"遷":2333,"選":2334,"遽":2335,"避":2336,"邀":2337,"還":2338,"邊":2339,"那":2340,"邦":2341,"邮":2342,"邻":2343,"部":2344,"都":2345,"配":2346,"酯":2347,"酸":2348,"醒":2349,"醫":2350,"采":2351,"释":2352,"釋":2353,"里":2354,"重":2355,"野":2356,"量":2357,"釐":2358,"金":2359,"針":2360,"鉴":2361,"銷":2362,"錄":2363,"鍵":2364,"鐘":2365,"针":2366,"钉":2367,"钓":2368,"钟":2369,"钥":2370,"钩":2371,"钮":2372,"钱":2373,"钾":2374,"铁":2375,"铜":2376,"银":2377,"链":2378,"销":2379,"锁":2380,"锐":2381,"错":2382,"锚":2383,"锤":2384,"键":2385,"锯":2386,"镂":2387,"镜":2388,"長":2389,"长":2390,"開":2391,"間":2392,"關":2393,"门":2394,"闩":2395,"闪":2396,"闭":2397,"问":2398,"闯":2399,"闲":2400,"间":2401,"闸":2402,"闻":2403,"阅":2404,"阈":2405,"阐":2406,"队":2407,"阡":2408,"阱":2409,"防":2410,"阳":2411,"阵":2412,"阶":2413,"阻":2414,"阿":2415,"附":2416,"际":2417,"陆":2418,"陈":2419,"陌":2420,"降":2421,"限":2422,"院":2423,"除":2424,"险":2425,"陷":2426,"陸":2427,"隆":2428,"隊":2429,"階":2430,"随":2431,"隐":2432,"隔":2433,"隙":2434,"際":2435,"障":2436,"隧":2437,"隨":2438,"險":2439,"难":2440,"雀":2441,"雄":2442,"雅":2443,"集":2444,"雇":2445,"雙":2446,"難":2447,"雪":2448,"零":2449,"雷":2450,"需":2451,"霍":2452,"露":2453,"青":2454,"静":2455,"非":2456,"靠":2457,"面":2458,"革":2459,"靶":2460,"韓":2461,"韧":2462,"韩":2463,"音":2464,"韵":2465,"響":2466,"項":2467,"預":2468,"領":2469,"頭":2470,"頻":2471,"題":2472,"額":2473,"願":2474,"類":2475,"顧":2476,"顯":2477,"页":2478,"顶":2479,"项":2480,"顺":2481,"须":2482,"顾":2483,"颁":2484,"预":2485,"领":2486,"颈":2487,"频":2488,"颗":2489,"题":2490,"颜":2491,"额":2492,"颠":2493,"风":2494,"飞":2495,"食":2496,"飽":2497,"餐":2498,"饰":2499,"饵":2500,"馈":2501,"馏":2502,"首":2503,"香":2504,"驅":2505,"驗":2506,"驟":2507,"马":2508,"驱":2509,"驳":2510,"驶":2511,"驻":2512,"驼":2513,"驾":2514,"骂":2515,"验":2516,"骗":2517,"骚":2518,"骤":2519,"骨":2520,"體":2521,"高":2522,"鬆":2523,"魔":2524,"鱼":2525,"鲁":2526,"鲜":2527,"鲸":2528,"麼":2529,"黄":2530,"黑":2531,"默":2532,"點":2533,"鼠":2534,"齐":2535,"齿":2536,"龙":2537,"가":2538,"갑":2539,"개":2540,"거":2541,"검":2542,"것":2543,"겠":2544,"견":2545,"계":2546,"고":2547,"과":2548,"관":2549,"구":2550,"국":2551,"근":2552,"기":2553,"까":2554,"나":2555,"녕":2556,"논":2557,"는":2558,"니":2559,"다":2560,"단":2561,"답":2562,"대":2563,"도":2564,"동":2565,"라":2566,"로":2567,"록":2568,"료":2569,"르":2570,"링":2571,"만":2572,"메":2573,"모":2574,"무":2575,"문":2576,"민":2577,"반":2578,"받":2579,"방":2580,"법":2581,"변":2582,"별":2583,"보":2584,"부":2585,"분":2586,"사":2587,"서":2588,"석":2589,"설":2590,"성":2591,"세":2592,"속":2593,"수":2594,"술":2595,"습":2596,"식":2597,"실":2598,"심":2599,"쓰":2600,"아":2601,"안":2602,"았":2603,"어":2604,"엇":2605,"에":2606,"연":2607,"영":2608,"와":2609,"완":2610,"요":2611,"용":2612,"워":2613,"원":2614,"위":2615,"을":2616,"의":2617,"이":2618,"인":2619,"입":2620,"자":2621,"작":2622,"잡":2623,"적":2624,"전":2625,"점":2626,"정":2627,"제":2628,"조":2629,"종":2630,"주":2631,"줘":2632,"지":2633,"찰":2634,"체":2635,"초":2636,"측":2637,"층":2638,"크":2639,"타":2640,"터":2641,"트":2642,"파":2643,"팩":2644,"평":2645,"프":2646,"플":2647,"하":2648,"학":2649,"한":2650,"할":2651,"합":2652,"해":2653,"향":2654,"헌":2655,"형":2656,"확":2657,"환":2658,"회":2659,"획":2660,"﻿":2661,"！":2662,"＇":2663,"（":2664,"）":2665,"，":2666,"．":2667,"：":2668,"；":2669,"＜":2670,"＞":2671,"？":2672,"ｃ":2673,"ｅ":2674,"ｏ":2675,"ｐ":2676,"ｒ":2677,"ｘ":2678,"￥":2679,"�":2680,"𝒢":2681,"𝒵":2682,"𝔢":2683,"𝔥":2684,"𝔩":2685,"𝔪":2686,"𝔬":2687,"𝔽":2688,"🄴":2689,"🄷":2690,"🄻":2691,"🄾":2692,"🌊":2693,"🌌":2694,"🌐":2695,"🌑":2696,"🌔":2697,"🌕":2698,"🌳":2699,"🌸":2700,"🍽":2701,"🎉":2702,"🎊":2703,"🎓":2704,"🎚":2705,"🎤":2706,"🎨":2707,"🎬":2708,"🎭":2709,"🎯":2710,"🏁":2711,"🏓":2712,"🏗":2713,"🏠":2714,"🏢":2715,"🏥":2716,"🏷":2717,"🐍":2718,"🐛":2719,"🐳":2720,"👀":2721,"👋":2722,"👍":2723,"👤":2724,"👥":2725,"👦":2726,"👧":2727,"👨":2728,"👩":2729,"👯":2730,"💀":2731,"💊":2732,"💞":2733,"💡":2734,"💣":2735,"💥":2736,"💬":2737,"💯":2738,"💰":2739,"💱":2740,"💾":2741,"📁":2742,"📂":2743,"📄":2744,"📅":2745,"📈":2746,"📊":2747,"📋":2748,"📌":2749,"📍":2750,"📎":2751,"📏":2752,"📐":2753,"📑":2754,"📔":2755,"📖":2756,"📘":2757,"📚":2758,"📜":2759,"📝":2760,"📞":2761,"📡":2762,"📤":2763,"📥":2764,"📦":2765,"📧":2766,"📩":2767,"📱":2768,"📷":2769,"📸":2770,"📹":2771,"🔁":2772,"🔄":2773,"🔇":2774,"🔊":2775,"🔌":2776,"🔍":2777,"🔐":2778,"🔑":2779,"🔒":2780,"🔓":2781,"🔗":2782,"🔢":2783,"🔥":2784,"🔧":2785,"🔬":2786,"🔴":2787,"🔵":2788,"🕐":2789,"🕰":2790,"🕸":2791,"🖥":2792,"🗂":2793,"🗃":2794,"🗄":2795,"🗺":2796,"😄":2797,"😎":2798,"😐":2799,"😤":2800,"😬":2801,"🚀":2802,"🚚":2803,"🚦":2804,"🚧":2805,"🚨":2806,"🚫":2807,"🛑":2808,"🛒":2809,"🛡":2810,"🟠":2811,"🟡":2812,"🟢":2813,"🟣":2814,"🤔":2815,"🤖":2816,"🤗":2817,"🤝":2818,"🤩":2819,"🥚":2820,"🥦":2821,"🦖":2822,"🦠":2823,"🦴":2824,"🧠":2825,"🧪":2826,"🧫":2827,"🧬":2828,"🧱":2829,"🧶":2830,"🩸":2831,"🫛":2832,"re":2833,"in":2834,"on":2835,"er":2836,"at":2837,"or":2838,"en":2839,"st":2840,"an":2841,"th":2842,"al":2843,"es":2844,"ion":2845,"ar":2846,"se":2847,"le":2848,"ro":2849,"it":2850,"ing":2851,"de":2852,"ct":2853,"co":2854,"ic":2855,"ent":2856,"ed":2857,"ch":2858,"is":2859,"and":2860,"the":2861,"me":2862,"lo":2863,"as":2864,"to":2865,"con":2866,"ation":2867,"un":2868,"ap":2869,"mp":2870,"ge":2871,"ut":2872,"for":2873,"ex":2874,"il":2875,"ce":2876,"id":2877,"ad":2878,"ur":2879,"pro":2880,"ig":2881,"ul":2882,"ate":2883,"ab":2884,"no":2885,"if":2886,"tr":2887,"ver":2888,"us":2889,"res":2890,"ac":2891,"ve":2892,"te":2893,"ter":2894,"qu":2895,"mo":2896,"pe":2897,"li":2898,"po":2899,"s.":2900,"ment":2901,"do":2902,"ri":2903,"ith":2904,"ly":2905,"ag":2906,"s,":2907,"ne":2908,"fi":2909,"su":2910,"ction":2911,"vi":2912,"pl":2913,"am":2914,"ol":2915,"ti":2916,"with":2917,"fe":2918,"wh":2919,"ort":2920,"per":2921,"di":2922,"ame":2923,"ma":2924,"use":2925,"dat":2926,"be":2927,"--":2928,"str":2929,"sh":2930,"ess":2931,"ren":2932,"ity":2933,"pt":2934,"not":2935,"cl":2936,"ty":2937,"val":2938,"ke":2939,"of":2940,"el":2941,"sc":2942,"ay":2943,"act":2944,"comp":2945,"──":2946,"age":2947,"ht":2948,"all":2949,"iz":2950,"com":2951,"are":2952,"out":2953,"ts":2954,"wor":2955,"ure":2956,"cont":2957,"mat":2958,"up":2959,"data":2960,"//":2961,"bo":2962,"()":2963,"ack":2964,"fa":2965,"gr":2966,"s:":2967,"rom":2968,"get":2969,"lin":2970,"able":2971,"pat":2972,"00":2973,"from":2974,"par":2975,"col":2976,"che":2977,"ck":2978,"au":2979,"ext":2980,"our":2981,"ser":2982,"end":2983,"ase":2984,"om":2985,"um":2986,"low":2987,"port":2988,"imp":2989,"ive":2990,"work":2991,"der":2992,"user":2993,");":2994,"im":2995,"set":2996,"ain":2997,"ist":2998,"cre":2999,"ass":3000,"ue":3001,"name":3002,"pre":3003,"fo":3004,"int":3005,"\",":3006,"requ":3007,"ste":3008,"des":3009,"ical":3010,"ust":3011,"log":3012,"ph":3013,"du":3014,"\":":3015,"run":3016,"sion":3017,"ill":3018,"gen":3019,"ite":3020,"feren":3021,"mode":3022,"op":3023,"app":3024,"..":3025,"mar":3026,"when":3027,"he":3028,"put":3029,"we":3030,"ign":3031,"one":3032,"ho":3033,").":3034,"spe":3035,"aw":3036,"file":3037,"ies":3038,"read":3039,"test":3040,"bu":3041,"by":3042,"ard":3043,"md":3044,"ces":3045,"comm":3046,"ial":3047,"ript":3048,"ding":3049,"amp":3050,"time":3051,"py":3052,"form":3053,"je":3054,"ult":3055,"red":3056,"ant":3057,"s/":3058,"art":3059,"fig":3060,"type":3061,"pr":3062,"ded":3063,"et":3064,"est":3065,"av":3066,"fin":3067,"cor":3068,"ib":3069,"sy":3070,"ew":3071,"und":3072,"ory":3073,"ance":3074,"tp":3075,"ific":3076,"view":3077,"min":3078,"ated":3079,"),":3080,"line":3081,"io":3082,"this":3083,"ject":3084,"ip":3085,"inter":3086,"api":3087,"wr":3088,"key":3089,"cess":3090,"ans":3091,"ight":3092,"arch":3093,"af":3094,"ev":3095,"path":3096,"fil":3097,"so":3098,"dis":3099,"http":3100,"model":3101,"────":3102,"cur":3103,"check":3104,"sk":3105,"back":3106,"referen":3107,"stat":3108,"err":3109,"load":3110,"ition":3111,"ice":3112,"ob":3113,"text":3114,"ub":3115,"ss":3116,"ll":3117,"les":3118,"js":3119,"only":3120,"cal":3121,"chan":3122,"ret":3123,"var":3124,"ers":3125,"code":3126,"fr":3127,"aph":3128,"sp":3129,"import":3130,"color":3131,"doc":3132,"pri":3133,"stru":3134,"can":3135,"ual":3136,"spec":3137,"cli":3138,"gro":3139,"ca":3140,"ai":3141,"cr":3142,"auth":3143,"sub":3144,"ize":3145,"wn":3146,"list":3147,"coun":3148,"urn":3149,"(\"":3150,"sd":3151,"agent":3152,"ource":3153,"flow":3154,"ence":3155,"ok":3156,"requi":3157,"error":3158,"ace":3159,"aly":3160,"fore":3161,"that":3162,"ations":3163,"rect":3164,"reg":3165,"es,":3166,"ds":3167,"man":3168,"0.":3169,"tern":3170,"config":3171,"graph":3172,"ta":3173,"row":3174,"ide":3175,"20":3176,"ask":3177,"tar":3178,"',":3179,"dep":3180,"valid":3181,"return":3182,"br":3183,"over":3184,"sho":3185,"lab":3186,"=\"":3187,"iv":3188,"ms":3189,"fir":3190,"gu":3191,"sdk":3192,"plic":3193,"search":3194,"trans":3195,".md":3196,"state":3197,"vis":3198,"produ":3199,"ull":3200,"vide":3201,"px":3202,"skill":3203,"1.":3204,"add":3205,"fl":3206,"):":3207,"gener":3208,"ou":3209,"mit":3210,"ait":3211,"const":3212,"base":3213,"sing":3214,"report":3215,"analy":3216,"fun":3217,"\")":3218,"before":3219,"ary":3220,"tool":3221,"serv":3222,"quer":3223,"json":3224,"cy":3225,"pres":3226,"ility":3227,"target":3228,"es.":3229,"tho":3230,"buil":3231,"ach":3232,"but":3233,"inst":3234,"string":3235,"output":3236,"ken":3237,"ify":3238,"led":3239,"struct":3240,"go":3241,"ick":3242,"ption":3243,"lect":3244,"step":3245,"action":3246,"count":3247,"call":3248,"bin":3249,"source":3250,"video":3251,"pi":3252,"you":3253,"version":3254,"ics":3255,"new":3256,"mis":3257,"very":3258,"value":3259,"dy":3260,"-s":3261,"create":3262,"10":3263,"vari":3264,"ci":3265,"ug":3266,"url":3267,"defa":3268,"script":3269,"function":3270,"token":3271,"cript":3272,"lay":3273,"ting":3274,"ff":3275,"ization":3276,"ample":3277,"ther":3278,"ative":3279,"ml":3280,"('":3281,"lic":3282,"stre":3283,"ature":3284,"fiel":3285,"ens":3286,"metr":3287,"metho":3288,"oom":3289,"stream":3290,"event":3291,"hand":3292,"ument":3293,"query":3294,"document":3295,"ep":3296,"s://":3297,"request":3298,"med":3299,"start":3300,"2.":3301,"ution":3302,"mul":3303,"mb":3304,"input":3305,"class":3306,"pattern":3307,"default":3308,"sup":3309,"cle":3310,"client":3311,"clo":3312,"https://":3313,"mary":3314,"date":3315,"ator":3316,"temp":3317,"ient":3318,"page":3319,"content":3320,"multi":3321,".com":3322,"sco":3323,"ute":3324,"pass":3325,"lement":3326,"valu":3327,"ing,":3328,"dr":3329,"...":3330,"contro":3331,"ak":3332,"clu":3333,"ession":3334,"net":3335,"project":3336,"await":3337,"pon":3338,"direct":3339,"nam":3340,"tre":3341,"true":3342,"==":3343,"format":3344,"ures":3345,"reference":3346,"_id":3347,"head":3348,"sa":3349,"main":3350,"ast":3351,"num":3352,"comple":3353,"point":3354,"cap":3355,"sis":3356,"win":3357,"match":3358,"order":3359,"syste":3360,"ot":3361,"ong":3362,"web":3363,"option":3364,"label":3365,"respon":3366,"whe":3367,"local":3368,"ash":3369,"first":3370,"status":3371,"rent":3372,"process":3373,"nc":3374,"vo":3375,"oper":3376,"ec":3377,"met":3378,"cat":3379,"sign":3380,"result":3381,"vel":3382,"post":3383,"map":3384,"sum":3385,"igh":3386,"typ":3387,"12":3388,"recor":3389,"specific":3390,"any":3391,"ates":3392,"ation,":3393,"auto":3394,"fix":3395,"ine":3396,"db":3397,"workflow":3398,"fail":3399,"ron":3400,"ef":3401,"descript":3402,"cp":3403,"ating":3404,"eng":3405,"conne":3406,"dif":3407,"zoom":3408,"inclu":3409,"lock":3410,"s)":3411,"cust":3412,"ud":3413,"what":3414,"review":3415,"────────":3416,"mi":3417,"off":3418,"your":3419,"references":3420,"context":3421,"ing.":3422,"dex":3423,"limit":3424,"on-":3425,"pos":3426,"control":3427,"custom":3428,"open":3429,"ha":3430,"build":3431,"tim":3432,"frame":3433,"field":3434,"design":3435,"mark":3436,"uld":3437,"sur":3438,"select":3439,"must":3440,"ail":3441,"ber":3442,"description":3443,"table":3444,"vs":3445,"analysis":3446,"play":3447,"its":3448,"inte":3449,"meet":3450,"mon":3451,"ross":3452,"----":3453,"my":3454,"cond":3455,"onent":3456,"3.":3457,"env":3458,"support":3459,"without":3460,"g.":3461,"component":3462,"tion":3463,"stand":3464,"══":3465,"df":3466,"after":3467,"each":3468,"high":3469,"index":3470,"down":3471,"full":3472,"session":3473,"ata":3474,"pyth":3475,"ident":3476,"filter":3477,"every":3478,"late":3479,"->":3480,"task":3481,"mess":3482,"face":3483,"pub":3484,"group":3485,"e.":3486,"level":3487,"ability":3488,"dist":3489,"datab":3490,"python":3491,"section":3492,"ql":3493,"size":3494,"fer":3495,"server":3496,"meeting":3497,"rel":3498,"bi":3499,"atch":3500,"structure":3501,"adata":3502,"ifi":3503,"fol":3504,"cent":3505,"share":3506,"ateg":3507,"fect":3508,"ible":3509,"ages":3510,"print":3511,"need":3512,"vid":3513,"system":3514,"command":3515,"},":3516,"exec":3517,"</":3518,"iter":3519,"way":3520,"100":3521,"ults":3522,"sed":3523,"arr":3524,"();":3525,"ont":3526,"dow":3527,"ning":3528,"ality":3529,"pect":3530,"sol":3531,"window":3532,"example":3533,"exist":3534,"25":3535,"sche":3536,"method":3537,"ments":3538,"colors.":3539,"access":3540,"part":3541,"ax":3542,"depend":3543,"sel":3544,"0,":3545,"required":3546,"response":3547,"{colors.":3548,"ation.":3549,"product":3550,"asy":3551,"::":3552,"top":3553,"author":3554,"files":3555,"ref":3556,"ground":3557,"appro":3558,"ir":3559,"defin":3560,"service":3561,"parame":3562,"}\"":3563,"let":3564,"medi":3565,"render":3566,"ger":3567,"max":3568,"vent":3569,"current":3570,"ima":3571,"her":3572,"issu":3573,"object":3574,"pack":3575,"os":3576,"sto":3577,"block":3578,"es:":3579,"remo":3580,"hel":3581,"});":3582,"=>":3583,"idence":3584,"body":3585,"plan":3586,".com/":3587,"parameter":3588,"cons":3589,"lan":3590,"tw":3591,"lection":3592,"image":3593,"link":3594,"ables":3595,"')":3596,"same":3597,"scal":3598,"bio":3599,"see":3600,"chang":3601,"sm":3602,"plo":3603,"name:":3604,"logy":3605,"self":3606,"s;":3607,"graphy":3608,"host":3609,"where":3610,"og":3611,"thes":3612,"s-":3613,"**":3614,"sty":3615,"rc":3616,"write":3617,"er.":3618,"dev":3619,"visual":3620,"tit":3621,"node":3622,"colum":3623,"ish":3624,"column":3625,"ced":3626,"results":3627,"cept":3628,"ency":3629,"loc":3630,"card":3631,"\"]":3632,"single":3633,"({":3634,"metadata":3635,"integr":3636,"cla":3637,"install":3638,"cho":3639,"using":3640,"async":3641,"ell":3642,"proper":3643,"change":3644,"4.":3645,"cover":3646,"cell":3647,"old":3648,"ctor":3649,"t.":3650,"contain":3651,"pipe":3652,"profile":3653,"has":3654,"resol":3655,"envi":3656,"background":3657,"exper":3658,"[\"":3659,"ich":3660,"environ":3661,"ification":3662,"word":3663,"jo":3664,"avail":3665,"expect":3666,"1,":3667,"://":3668,"-d":3669,"place":3670,"ized":3671,"primary":3672,"mic":3673,"lar":3674,"hy":3675,"raw":3676,"mal":3677,"ler":3678,"other":3679,"ran":3680,"require":3681,"side":3682,"init":3683,".get":3684,"xx":3685,"ple":3686,"loy":3687,"references/":3688,"does":3689,"unded":3690,"ree":3691,"rate":3692,"thro":3693,"itor":3694,"plicit":3695,"core":3696,"explicit":3697,"bl":3698,"train":3699,"pa":3700,"cer":3701,"active":3702,"ling":3703,"char":3704,"should":3705,"cs":3706,"schema":3707,"claim":3708,"proto":3709,"show":3710,"mem":3711,"ension":3712,"prob":3713,"202":3714,"include":3715,"tag":3716,"pay":3717,"ources":3718,"case":3719,"sequ":3720,"title":3721,"ugh":3722,"ed.":3723,"reen":3724,"via":3725,"message":3726,"into":3727,"tch":3728,"under":3729,"number":3730,"tract":3731,"fal":3732,"ink":3733,"batch":3734,"item":3735,"sim":3736,"research":3737,"box":3738,"wid":3739,"effect":3740,"conver":3741,"used":3742,"common":3743,"standard":3744,"differen":3745,"uration":3746,"rt":3747,"ket":3748,"update":3749,"mod":3750,"bre":3751,"ices":3752,"phase":3753,"how":3754,"available":3755,"16":3756,"brow":3757,"wi":3758,"nal":3759,"org":3760,"ous":3761,"绕过":3762,"ui":3763,"deploy":3764,"false":3765,"ules":3766,"applic":3767,"evidence":3768,"amples":3769,"verify":3770,"15":3771,"cloud":3772,"(f":3773,"nel":3774,"types":3775,"ions":3776,"ule":3777,"safe":3778,"})":3779,"typo":3780,"ind":3781,"than":3782,"ential":3783,"quality":3784,"resh":3785,"__":3786,"now":3787,"through":3788,"less":3789,"dete":3790,"null":3791,"butt":3792,"dec":3793,"environment":3794,"e.g.":3795,"multiple":3796,"never":3797,"spac":3798,"fast":3799,"summary":3800,"syn":3801,"audi":3802,"1)":3803,"join":3804,"export":3805,"c.":3806,"prote":3807,"dele":3808,"validation":3809,"sure":3810,"optim":3811,"present":3812,"layout":3813,"rele":3814,"typography":3815,"correct":3816,"board":3817,"np":3818,"public":3819,"implement":3820,"crit":3821,"mer":3822,"rat":3823,"rounded":3824,"ear":3825,"bound":3826,"keep":3827,"metric":3828,"{\"":3829,"feature":3830,"ular":3831,"att":3832,"def":3833,"sl":3834,"categ":3835,"##":3836,"sql":3837,"s_":3838,"style":3839,"ense":3840,"ful":3841,"separ":3842,"tail":3843,"ities":3844,"based":3845,"-0":3846,"dir":3847,"ile":3848,"diag":3849,"space":3850,"pap":3851,"ints":3852,"air":3853,"geo":3854,"ically":3855,"setting":3856,"pan":3857,"next":3858,"ason":3859,"64":3860,"phy":3861,"uses":3862,"que":3863,"ps":3864,"ia":3865,"memory":3866,"param":3867,"names":3868,"ational":3869,"vas":3870,"nor":3871,"missing":3872,"使用":3873,"values":3874,"writ":3875,"mcp":3876,"array":3877,"across":3878,"condition":3879,"recomm":3880,"then":3881,"flag":3882,"domain":3883,"od":3884,"bal":3885,"confir":3886,"complete":3887,"meas":3888,"non-":3889,"none":3890,"ved":3891,"uni":3892,"html":3893,"s.md":3894,"real":3895,"own":3896,"wer":3897,"war":3898,"bet":3899,"critical":3900,"runtime":3901,"browser":3902,"ready":3903,".py":3904,"ivity":3905,"database":3906,"ched":3907,"template":3908,"root":3909,"sets":3910,"plat":3911,"evalu":3912,"t-":3913,"],":3914,"bug":3915,"secre":3916,"like":3917,"ie":3918,"ress":3919,"fetch":3920,"shell":3921,"send":3922,"ways":3923,"\"\"":3924,"ants":3925,"track":3926,"job":3927,"rout":3928,"try":3929,"ibility":3930,"treat":3931,"font":3932,"stor":3933,"pers":3934,"shap":3935,"perform":3936,"ade":3937,"spect":3938,"ifact":3939,"artifact":3940,"quest":3941,"tal":3942,"ben":3943,"ship":3944,"lines":3945,"${":3946,"er-":3947,"(e.g.":3948,"mail":3949,"stage":3950,"book":3951,"surface":3952,"cache":3953,"provid":3954,"sw":3955,"note":3956,"alog":3957,"connect":3958,"transform":3959,"width":3960,"dro":3961,"ified":3962,"large":3963,"info":3964,"platform":3965,"may":3966,"bar":3967,"experi":3968,"payload":3969,"element":3970,"ven":3971,"display":3972,"setup":3973,"car":3974,"align":3975,"account":3976,"y,":3977,".json":3978,"std":3979,"ux":3980,"ision":3981,"mut":3982,"anch":3983,"adding":3984,"stu":3985,"don":3986,"exact":3987,"equ":3988,"='":3989,"sample":3990,"pipeline":3991,"na":3992,"canvas":3993,"screen":3994,"protocol":3995,"admin":3996,"gate":3997,"finding":3998,"════":3999},"merges":[["r","e"],["i","n"],["o","n"],["e","r"],["a","t"],["o","r"],["e","n"],["s","t"],["a","n"],["t","h"],["a","l"],["e","s"],["i","on"],["a","r"],["s","e"],["l","e"],["r","o"],["i","t"],["in","g"],["d","e"],["c","t"],["c","o"],["i","c"],["en","t"],["e","d"],["c","h"],["i","s"],["an","d"],["th","e"],["m","e"],["l","o"],["a","s"],["t","o"],["c","on"],["at","ion"],["u","n"],["a","p"],["m","p"],["g","e"],["u","t"],["f","or"],["e","x"],["i","l"],["c","e"],["i","d"],["a","d"],["u","r"],["p","ro"],["i","g"],["u","l"],["at","e"],["a","b"],["n","o"],["i","f"],["t","r"],["v","er"],["u","s"],["re","s"],["a","c"],["v","e"],["t","e"],["t","er"],["q","u"],["m","o"],["p","e"],["l","i"],["p","o"],["s","."],["m","ent"],["d","o"],["r","i"],["i","th"],["l","y"],["a","g"],["s",","],["n","e"],["f","i"],["s","u"],["ct","ion"],["v","i"],["p","l"],["a","m"],["o","l"],["t","i"],["w","ith"],["f","e"],["w","h"],["or","t"],["p","er"],["d","i"],["a","me"],["m","a"],["u","se"],["d","at"],["b","e"],["-","-"],["st","r"],["s","h"],["es","s"],["re","n"],["it","y"],["p","t"],["no","t"],["c","l"],["t","y"],["v","al"],["k","e"],["o","f"],["e","l"],["s","c"],["a","y"],["a","ct"],["co","mp"],["─","─"],["a","ge"],["h","t"],["al","l"],["i","z"],["co","m"],["a","re"],["o","ut"],["t","s"],["w","or"],["u","re"],["con","t"],["m","at"],["u","p"],["dat","a"],["/","/"],["b","o"],["(",")"],["ac","k"],["f","a"],["g","r"],["s",":"],["ro","m"],["ge","t"],["l","in"],["ab","le"],["p","at"],["0","0"],["f","rom"],["p","ar"],["co","l"],["ch","e"],["c","k"],["a","u"],["ex","t"],["o","ur"],["s","er"],["en","d"],["a","se"],["o","m"],["u","m"],["lo","w"],["p","ort"],["i","mp"],["i","ve"],["wor","k"],["d","er"],["us","er"],[")",";"],["i","m"],["se","t"],["a","in"],["i","st"],["c","re"],["as","s"],["u","e"],["n","ame"],["p","re"],["f","o"],["in","t"],["\"",","],["re","qu"],["st","e"],["d","es"],["ic","al"],["u","st"],["lo","g"],["p","h"],["d","u"],["\"",":"],["r","un"],["s","ion"],["il","l"],["g","en"],["it","e"],["fe","ren"],["mo","de"],["o","p"],["ap","p"],[".","."],["m","ar"],["wh","en"],["h","e"],["p","ut"],["w","e"],["ig","n"],["on","e"],["h","o"],[")","."],["s","pe"],["a","w"],["fi","le"],["i","es"],["re","ad"],["te","st"],["b","u"],["b","y"],["ar","d"],["m","d"],["c","es"],["com","m"],["i","al"],["ri","pt"],["d","ing"],["a","mp"],["ti","me"],["p","y"],["for","m"],["j","e"],["ul","t"],["re","d"],["an","t"],["s","/"],["ar","t"],["f","ig"],["ty","pe"],["p","r"],["de","d"],["e","t"],["e","st"],["a","v"],["f","in"],["c","or"],["i","b"],["s","y"],["e","w"],["un","d"],["or","y"],["an","ce"],["t","p"],["if","ic"],["vi","ew"],["m","in"],["at","ed"],[")",","],["lin","e"],["i","o"],["th","is"],["je","ct"],["i","p"],["in","ter"],["ap","i"],["w","r"],["ke","y"],["c","ess"],["an","s"],["ig","ht"],["ar","ch"],["a","f"],["e","v"],["pat","h"],["f","il"],["s","o"],["d","is"],["ht","tp"],["mode","l"],["──","──"],["c","ur"],["che","ck"],["s","k"],["b","ack"],["re","feren"],["st","at"],["er","r"],["lo","ad"],["it","ion"],["ic","e"],["o","b"],["t","ext"],["u","b"],["s","s"],["l","l"],["l","es"],["j","s"],["on","ly"],["c","al"],["ch","an"],["re","t"],["v","ar"],["er","s"],["co","de"],["f","r"],["ap","h"],["s","p"],["imp","ort"],["col","or"],["do","c"],["p","ri"],["str","u"],["c","an"],["u","al"],["spe","c"],["c","li"],["g","ro"],["c","a"],["a","i"],["c","r"],["au","th"],["su","b"],["iz","e"],["w","n"],["li","st"],["co","un"],["ur","n"],["(","\""],["s","d"],["ag","ent"],["our","ce"],["f","low"],["en","ce"],["o","k"],["requ","i"],["err","or"],["a","ce"],["al","y"],["fo","re"],["th","at"],["ation","s"],["re","ct"],["re","g"],["es",","],["d","s"],["m","an"],["0","."],["ter","n"],["con","fig"],["gr","aph"],["t","a"],["ro","w"],["i","de"],["2","0"],["as","k"],["t","ar"],["'",","],["de","p"],["val","id"],["ret","urn"],["b","r"],["o","ver"],["sh","o"],["l","ab"],["=","\""],["i","v"],["m","s"],["fi","r"],["g","u"],["sd","k"],["pl","ic"],["se","arch"],["tr","ans"],[".","md"],["st","ate"],["v","is"],["pro","du"],["ul","l"],["vi","de"],["p","x"],["sk","ill"],["1","."],["ad","d"],["f","l"],[")",":"],["gen","er"],["o","u"],["m","it"],["a","it"],["con","st"],["b","ase"],["s","ing"],["re","port"],["an","aly"],["f","un"],["\"",")"],["be","fore"],["ar","y"],["to","ol"],["ser","v"],["qu","er"],["js","on"],["c","y"],["p","res"],["il","ity"],["tar","get"],["es","."],["th","o"],["bu","il"],["a","ch"],["b","ut"],["in","st"],["str","ing"],["out","put"],["k","en"],["if","y"],["le","d"],["stru","ct"],["g","o"],["ic","k"],["pt","ion"],["le","ct"],["ste","p"],["a","ction"],["coun","t"],["c","all"],["b","in"],["s","ource"],["vide","o"],["p","i"],["y","ou"],["ver","sion"],["ic","s"],["ne","w"],["m","is"],["ver","y"],["val","ue"],["d","y"],["-","s"],["cre","ate"],["1","0"],["var","i"],["c","i"],["u","g"],["ur","l"],["de","fa"],["sc","ript"],["fun","ction"],["to","ken"],["c","ript"],["l","ay"],["t","ing"],["f","f"],["iz","ation"],["amp","le"],["th","er"],["at","ive"],["m","l"],["(","'"],["l","ic"],["st","re"],["at","ure"],["fi","el"],["en","s"],["me","tr"],["me","tho"],["o","om"],["stre","am"],["ev","ent"],["h","and"],["u","ment"],["quer","y"],["doc","ument"],["e","p"],["s:","//"],["requ","est"],["m","ed"],["st","art"],["2","."],["ut","ion"],["m","ul"],["m","b"],["in","put"],["cl","ass"],["pat","tern"],["defa","ult"],["su","p"],["c","le"],["cli","ent"],["c","lo"],["http","s://"],["mar","y"],["d","ate"],["at","or"],["te","mp"],["i","ent"],["p","age"],["cont","ent"],["mul","ti"],[".","com"],["s","co"],["ut","e"],["p","ass"],["le","ment"],["val","u"],["ing",","],["d","r"],["..","."],["cont","ro"],["a","k"],["cl","u"],["ess","ion"],["ne","t"],["pro","ject"],["aw","ait"],["p","on"],["di","rect"],["n","am"],["t","re"],["tr","ue"],["=","="],["for","mat"],["u","res"],["referen","ce"],["_","id"],["he","ad"],["s","a"],["ma","in"],["a","st"],["n","um"],["comp","le"],["po","int"],["c","ap"],["s","is"],["w","in"],["mat","ch"],["or","der"],["sy","ste"],["o","t"],["on","g"],["we","b"],["o","ption"],["lab","el"],["res","pon"],["wh","e"],["lo","cal"],["as","h"],["fir","st"],["stat","us"],["ren","t"],["pro","cess"],["n","c"],["v","o"],["o","per"],["e","c"],["me","t"],["c","at"],["s","ign"],["res","ult"],["ve","l"],["po","st"],["m","ap"],["su","m"],["ig","h"],["ty","p"],["1","2"],["re","cor"],["spec","ific"],["an","y"],["at","es"],["ation",","],["au","to"],["fi","x"],["in","e"],["d","b"],["work","flow"],["fa","il"],["r","on"],["e","f"],["des","cript"],["c","p"],["at","ing"],["en","g"],["con","ne"],["d","if"],["z","oom"],["in","clu"],["lo","ck"],["s",")"],["c","ust"],["u","d"],["wh","at"],["re","view"],["────","────"],["m","i"],["of","f"],["y","our"],["referen","ces"],["cont","ext"],["ing","."],["de","x"],["li","mit"],["on","-"],["po","s"],["contro","l"],["cust","om"],["op","en"],["h","a"],["buil","d"],["ti","m"],["fr","ame"],["fiel","d"],["des","ign"],["mar","k"],["ul","d"],["s","ur"],["se","lect"],["m","ust"],["a","il"],["b","er"],["descript","ion"],["t","able"],["v","s"],["analy","sis"],["pl","ay"],["it","s"],["in","te"],["me","et"],["m","on"],["ro","ss"],["--","--"],["m","y"],["con","d"],["on","ent"],["3","."],["en","v"],["sup","port"],["with","out"],["g","."],["comp","onent"],["t","ion"],["st","and"],["═","═"],["d","f"],["af","ter"],["e","ach"],["h","igh"],["in","dex"],["do","wn"],["f","ull"],["s","ession"],["at","a"],["py","th"],["id","ent"],["fil","ter"],["e","very"],["l","ate"],["-",">"],["t","ask"],["m","ess"],["fa","ce"],["p","ub"],["gro","up"],["e","."],["le","vel"],["ab","ility"],["di","st"],["dat","ab"],["pyth","on"],["se","ction"],["q","l"],["s","ize"],["f","er"],["ser","ver"],["meet","ing"],["re","l"],["b","i"],["at","ch"],["struct","ure"],["ad","ata"],["if","i"],["f","ol"],["c","ent"],["sh","are"],["ate","g"],["fe","ct"],["ib","le"],["ag","es"],["pr","int"],["ne","ed"],["v","id"],["syste","m"],["comm","and"],["}",","],["ex","ec"],["<","/"],["it","er"],["w","ay"],["1","00"],["ul","ts"],["se","d"],["ar","r"],["()",";"],["on","t"],["do","w"],["n","ing"],["al","ity"],["pe","ct"],["s","ol"],["win","dow"],["ex","ample"],["ex","ist"],["2","5"],["s","che"],["metho","d"],["ment","s"],["color","s."],["ac","cess"],["par","t"],["a","x"],["dep","end"],["se","l"],["0",","],["requi","red"],["respon","se"],["{","colors."],["ation","."],["produ","ct"],["as","y"],[":",":"],["to","p"],["auth","or"],["fil","es"],["re","f"],["gro","und"],["ap","pro"],["i","r"],["de","fin"],["serv","ice"],["par","ame"],["}","\""],["le","t"],["med","i"],["ren","der"],["g","er"],["ma","x"],["v","ent"],["cur","rent"],["i","ma"],["h","er"],["is","su"],["ob","ject"],["p","ack"],["o","s"],["st","o"],["b","lock"],["es",":"],["re","mo"],["h","el"],["}",");"],["=",">"],["id","ence"],["bo","dy"],["pl","an"],[".com","/"],["parame","ter"],["con","s"],["l","an"],["t","w"],["le","ction"],["ima","ge"],["lin","k"],["ab","les"],["'",")"],["s","ame"],["sc","al"],["b","io"],["se","e"],["chan","g"],["s","m"],["p","lo"],["name",":"],["log","y"],["sel","f"],["s",";"],["graph","y"],["ho","st"],["whe","re"],["o","g"],["th","es"],["s","-"],["*","*"],["st","y"],["r","c"],["wr","ite"],["er","."],["de","v"],["vis","ual"],["t","it"],["no","de"],["col","um"],["is","h"],["colum","n"],["c","ed"],["res","ults"],["ce","pt"],["en","cy"],["lo","c"],["c","ard"],["\"","]"],["sing","le"],["(","{"],["met","adata"],["inte","gr"],["cl","a"],["inst","all"],["ch","o"],["us","ing"],["asy","nc"],["el","l"],["pro","per"],["chan","ge"],["4","."],["co","ver"],["ce","ll"],["ol","d"],["ct","or"],["t","."],["cont","ain"],["pi","pe"],["pro","file"],["h","as"],["res","ol"],["en","vi"],["back","ground"],["ex","per"],["[","\""],["ic","h"],["envi","ron"],["ific","ation"],["wor","d"],["j","o"],["av","ail"],["ex","pect"],["1",","],[":","//"],["-","d"],["pl","ace"],["iz","ed"],["pri","mary"],["m","ic"],["l","ar"],["h","y"],["r","aw"],["m","al"],["l","er"],["o","ther"],["r","an"],["requi","re"],["s","ide"],["in","it"],[".","get"],["x","x"],["p","le"],["lo","y"],["references","/"],["do","es"],["un","ded"],["re","e"],["r","ate"],["th","ro"],["it","or"],["plic","it"],["co","re"],["ex","plicit"],["b","l"],["tr","ain"],["p","a"],["c","er"],["act","ive"],["l","ing"],["ch","ar"],["sho","uld"],["c","s"],["sche","ma"],["cla","im"],["pro","to"],["sho","w"],["me","m"],["en","sion"],["pro","b"],["20","2"],["inclu","de"],["t","ag"],["p","ay"],["our","ces"],["c","ase"],["se","qu"],["tit","le"],["ug","h"],["ed","."],["re","en"],["vi","a"],["mess","age"],["in","to"],["t","ch"],["un","der"],["num","ber"],["tr","act"],["f","al"],["in","k"],["b","atch"],["ite","m"],["s","im"],["re","search"],["bo","x"],["w","id"],["ef","fect"],["con","ver"],["use","d"],["comm","on"],["stand","ard"],["dif","feren"],["ur","ation"],["r","t"],["ke","t"],["up","date"],["mo","d"],["b","re"],["ic","es"],["ph","ase"],["ho","w"],["avail","able"],["1","6"],["b","row"],["w","i"],["n","al"],["or","g"],["o","us"],["绕","过"],["u","i"],["dep","loy"],["fal","se"],["ul","es"],["ap","plic"],["ev","idence"],["amp","les"],["ver","ify"],["1","5"],["clo","ud"],["(","f"],["ne","l"],["typ","es"],["ion","s"],["u","le"],["sa","fe"],["}",")"],["ty","po"],["in","d"],["th","an"],["ent","ial"],["qu","ality"],["res","h"],["_","_"],["no","w"],["thro","ugh"],["l","ess"],["de","te"],["n","ull"],["but","t"],["de","c"],["environ","ment"],["e.","g."],["multi","ple"],["ne","ver"],["sp","ac"],["fa","st"],["sum","mary"],["sy","n"],["au","di"],["1",")"],["jo","in"],["ex","port"],["c","."],["pro","te"],["de","le"],["valid","ation"],["su","re"],["op","tim"],["pres","ent"],["lay","out"],["re","le"],["typo","graphy"],["cor","rect"],["bo","ard"],["n","p"],["pub","lic"],["imp","lement"],["cr","it"],["m","er"],["r","at"],["ro","unded"],["e","ar"],["bo","und"],["ke","ep"],["metr","ic"],["{","\""],["fe","ature"],["ul","ar"],["at","t"],["de","f"],["s","l"],["c","ateg"],["#","#"],["s","ql"],["s","_"],["sty","le"],["en","se"],["f","ul"],["se","par"],["ta","il"],["it","ies"],["base","d"],["-","0"],["di","r"],["i","le"],["di","ag"],["sp","ace"],["p","ap"],["in","ts"],["ai","r"],["ge","o"],["ical","ly"],["set","ting"],["p","an"],["n","ext"],["as","on"],["6","4"],["ph","y"],["us","es"],["qu","e"],["p","s"],["i","a"],["mem","ory"],["par","am"],["nam","es"],["ation","al"],["v","as"],["n","or"],["mis","sing"],["使","用"],["valu","es"],["wr","it"],["m","cp"],["arr","ay"],["ac","ross"],["cond","ition"],["re","comm"],["th","en"],["fl","ag"],["do","main"],["o","d"],["b","al"],["con","fir"],["comple","te"],["me","as"],["n","on-"],["n","one"],["v","ed"],["un","i"],["ht","ml"],["s.","md"],["re","al"],["o","wn"],["w","er"],["w","ar"],["be","t"],["crit","ical"],["run","time"],["brow","ser"],["read","y"],[".","py"],["iv","ity"],["datab","ase"],["ch","ed"],["temp","late"],["ro","ot"],["se","ts"],["pl","at"],["e","valu"],["t","-"],["]",","],["bu","g"],["se","cre"],["li","ke"],["i","e"],["res","s"],["fe","tch"],["sh","ell"],["s","end"],["way","s"],["\"","\""],["an","ts"],["tr","ack"],["j","ob"],["ro","ut"],["tr","y"],["ib","ility"],["tre","at"],["f","ont"],["st","or"],["per","s"],["sh","ap"],["per","form"],["a","de"],["spe","ct"],["if","act"],["art","ifact"],["qu","est"],["t","al"],["b","en"],["sh","ip"],["lin","es"],["$","{"],["er","-"],["(","e.g."],["ma","il"],["st","age"],["bo","ok"],["sur","face"],["ca","che"],["pro","vid"],["s","w"],["no","te"],["al","og"],["conne","ct"],["trans","form"],["wid","th"],["d","ro"],["ifi","ed"],["lar","ge"],["in","fo"],["plat","form"],["ma","y"],["b","ar"],["exper","i"],["pay","load"],["e","lement"],["v","en"],["dis","play"],["set","up"],["c","ar"],["al","ign"],["ac","count"],["y",","],[".","json"],["st","d"],["u","x"],["is","ion"],["m","ut"],["an","ch"],["ad","ding"],["st","u"],["d","on"],["ex","act"],["e","qu"],["=","'"],["s","ample"],["pipe","line"],["n","a"],["can","vas"],["sc","reen"],["proto","col"],["ad","min"],["g","ate"],["fin","ding"],["══","══"]]}}